{
  "ĠAB": 13561,
  "Officials": 19025,
  "worthy": 16275,
  "Four": 13192,
  "Ġdamning": 27940,
  "ĠUnion": 3780,
  "Ġaffect": 2771,
  "articles": 27585,
  "Mill": 29992,
  "Ġmechanisms": 11760,
  "Ġhumility": 30906,
  "Ġseaw": 28893,
  "Ġbelts": 27196,
  "bery": 11433,
  "wer": 14081,
  "Ġarchaeological": 26223,
  "ical": 549,
  "ĠOutlook": 30866,
  "ĠDawn": 15203,
  "Ġeconom": 1325,
  "caps": 25134,
  "find": 24612,
  "ĠBundy": 29244,
  "ĠWeek": 6143,
  "Ġneat": 14048,
  "ostal": 15659,
  "ï¼Į": 26769,
  "ĠFocus": 19062,
  "Ġslider": 28852,
  "Ġreports": 2666,
  "Ġcle": 1123,
  "Ġfortress": 31415,
  "Ġstrategies": 9605,
  "Ġann": 1292,
  "planned": 31185,
  "ĠFields": 24014,
  "Ġtourn": 5472,
  "ĠPunj": 22167,
  "ĠSlack": 31830,
  "Moore": 29571,
  "ĠInto": 23899,
  "Ġdoll": 3115,
  "Ġtransitions": 24687,
  "Ġdat": 4964,
  "ĠHong": 9586,
  "Ġbetrayal": 26379,
  "Ġcounters": 23131,
  "Ġencour": 3577,
  "Ġsectarian": 21242,
  "ĠIdentity": 29272,
  "ĠDylan": 18690,
  "great": 16267,
  "leen": 17331,
  "ĠCol": 1669,
  "Ġtrigger": 9105,
  "indust": 18834,
  "Ġrush": 9250,
  "Ġtraveled": 12121,
  "Ġgalaxy": 15353,
  "Ġdetective": 17886,
  "icket": 8362,
  "Ġgotten": 7062,
  "Ġengulf": 28084,
  "iu": 18946,
  "Ġaffiliated": 17269,
  "ĠSic": 26732,
  "Trans": 10525,
  "ĠFil": 6828,
  "Ġmatter": 2205,
  "ĠFischer": 26775,
  "Ġhorm": 12731,
  "Ġpopularity": 9232,
  "ĠCalif": 2741,
  "world": 7635,
  "oked": 6310,
  "ĠBlizzard": 20710,
  "Ġpne": 24569,
  "Ġremoving": 10639,
  "Ġstroke": 14777,
  "Ġautumn": 20496,
  "Ġoh": 14128,
  "Ġthugs": 29787,
  "er": 220,
  "ĠACC": 17334,
  "ĠPayne": 27758,
  "Ġinputs": 18285,
  "olds": 9301,
  "gay": 17893,
  "Ġinfer": 14080,
  "ĠRising": 22318,
  "ĠGret": 29653,
  "ussen": 27210,
  "Ġindustry": 2332,
  "ĠSand": 3268,
  "achine": 23760,
  "]<|": 12463,
  "Ġhouseholds": 11019,
  "ussions": 18870,
  "Ġeventual": 15671,
  "Ġdont": 26582,
  "Ġowner": 4904,
  "g": 71,
  "Ġmight": 1170,
  "ĠTak": 18100,
  "Ġhref": 17958,
  "rament": 13700,
  "rio": 21995,
  "Ġdefeats": 21258,
  "Ġinjury": 4772,
  "ĠHaving": 10732,
  "Ġtrait": 18832,
  "Ġbrink": 23266,
  "ĠNike": 21250,
  "borne": 12288,
  "Ġsmashing": 31396,
  "ĠHours": 24503,
  "Ġrules": 3023,
  "ĠBrian": 7239,
  "Ġdecade": 4544,
  "prof": 4950,
  "Ġcontracting": 27606,
  "Ġtask": 4521,
  "Ġlips": 16815,
  "Ġseasons": 5408,
  "Ġnecessity": 14904,
  "ĠCave": 25070,
  "ĠâĢķ": 22417,
  "ĠVirt": 27754,
  "Ġofficials": 2185,
  "ĠGonzalez": 19536,
  "Ġsan": 4707,
  "Notes": 17480,
  "ĠRain": 12364,
  "IF": 6429,
  "Ġbetting": 20096,
  "usually": 23938,
  "ĠBridge": 9231,
  "RELATED": 15648,
  "Ġwaist": 20315,
  "inian": 19155,
  "ĠTommy": 17291,
  "ĠPic": 16609,
  "ĠDi": 6626,
  "ophone": 31800,
  "Ġcolleague": 12850,
  "Ġplaces": 3879,
  "duction": 10004,
  "odor": 26319,
  "Ġsponsorship": 22419,
  "Ġscheme": 6968,
  "NASA": 22102,
  "Ġrandomly": 16315,
  "ĠEvan": 18640,
  "Ġflo": 6013,
  "âĺ": 21573,
  "Ġmuscle": 9811,
  "itive": 1732,
  "ĠEver": 10273,
  "Ġonslaught": 30357,
  "Ġskating": 26000,
  "National": 15383,
  "isexual": 18747,
  "Ġdevote": 23032,
  "Ġresemblance": 27601,
  "ack": 406,
  "ll": 255,
  "lete": 7803,
  "Ġworlds": 11808,
  "Ġundermine": 12978,
  "Ġcorpse": 24960,
  "Ġunrestricted": 30127,
  "ĠNotice": 23206,
  "union": 22357,
  "Ġlibraries": 11658,
  "ÃŁ": 22777,
  "ĠMozilla": 24121,
  "Ġclearly": 3814,
  "Ġmer": 4087,
  "ĠSaddam": 19735,
  "Ġdecks": 13388,
  "Ġverge": 22316,
  "arch": 942,
  "ĠWide": 25863,
  "racuse": 24173,
  "lant": 4391,
  "Ġcrafted": 18696,
  "mond": 5718,
  "aeda": 8966,
  "Ġbothered": 18550,
  "Ġletters": 7201,
  "Ġconfiguration": 10514,
  "Ġbacker": 31193,
  "occup": 17751,
  "Ġfatigue": 20044,
  "Ġaccompl": 5917,
  "Ġmillenn": 13286,
  "ĠPete": 15592,
  "Ġwhy": 1374,
  "Ġfactual": 25823,
  "ky": 2670,
  "Ġexha": 9414,
  "Ġworkers": 2712,
  "Ġprecaution": 29495,
  "Ġtissues": 22996,
  "unity": 11007,
  "lived": 20080,
  "Ġaspirations": 21849,
  "ĠMPs": 10936,
  "Ġrespond": 2684,
  "é": 164,
  "ĠPodesta": 22955,
  "ventions": 16324,
  "Mat": 14513,
  "Martin": 21617,
  "MON": 30594,
  "Ġperformance": 2826,
  "):": 3696,
  "ĠDarwin": 17884,
  "den": 5215,
  "ĠPE": 20570,
  "Ġobvious": 4805,
  "ocumented": 14104,
  "Ġbuoy": 30809,
  "Ġupdated": 6606,
  "Ġprom": 1360,
  "sn": 17031,
  "estival": 5769,
  "FP": 6593,
  "Ġdevastating": 11612,
  "Ġpsych": 3721,
  "ĠDou": 5945,
  "Ġvalid": 5776,
  "their": 22334,
  "ĠWine": 21879,
  "namese": 18043,
  "ĠRS": 21562,
  "Ġspeakers": 10711,
  "acious": 13807,
  "ĠCarrie": 28682,
  "ensing": 29301,
  "ĠUkrainian": 10911,
  "Ġfederally": 28257,
  "ĠElizabeth": 9907,
  "ĠKatrina": 25301,
  "ĠWitch": 23166,
  "Ġclusters": 21893,
  "Ġoutlining": 30035,
  "Ġmarch": 8896,
  "orough": 7713,
  "Ġdrawing": 7872,
  "ĠRi": 22737,
  "atern": 9514,
  "Ġdefenders": 12839,
  "FW": 29209,
  "Ġunhealthy": 24738,
  "llig": 2644,
  "Ġwalk": 2459,
  "ãģ¾": 24556,
  "ĠCrew": 18025,
  "tw": 15254,
  "Ġtightening": 30203,
  "inea": 18328,
  "Ġelegant": 19343,
  "gat": 28320,
  "rolling": 14185,
  "acs": 20265,
  "Ġpresidential": 3633,
  "hour": 8425,
  "73": 9169,
  "Ġpainted": 12304,
  "Ġscare": 16477,
  "ĠCreat": 9903,
  "Ġweekly": 9305,
  "Ġpools": 19128,
  "ĠMagn": 16924,
  "Ġregular": 3882,
  "ĠGuinea": 21674,
  "azi": 6723,
  "Ġorn": 25118,
  "puter": 11654,
  "ĠIvan": 19528,
  "Ġabsorbed": 20153,
  "ĠTorres": 24043,
  "ena": 6389,
  "}": 93,
  "Ġobjective": 9245,
  "Ġopener": 17700,
  "ARR": 30336,
  "Rod": 24484,
  "Ġinjuries": 6040,
  "Ġpossibilities": 11360,
  "ĠAFL": 18127,
  "Ġmovement": 2932,
  "Ġquoted": 9403,
  "ascist": 26996,
  "ĠXL": 17799,
  "ĠChristians": 8040,
  "ĠGrid": 27134,
  "cano": 21877,
  "Ġlaugh": 6382,
  "Ġknocking": 19685,
  "Ġdiscovers": 27399,
  "Cam": 22587,
  "sylv": 7969,
  "astic": 3458,
  "Ġholiday": 8453,
  "anch": 3426,
  "Ġcalcium": 25356,
  "Ġobjections": 18848,
  "ĠMarathon": 22652,
  "Ġreplicated": 30750,
  "Ġplanted": 17695,
  "Ġborough": 25638,
  "Ġwhatever": 4120,
  "Ġpress": 1644,
  "Ġpun": 3897,
  "isp": 7971,
  "Ġrevision": 19028,
  "ola": 5040,
  "Ġcelebrates": 23291,
  "Soft": 27174,
  "Ġmedications": 18706,
  "Ġrobust": 10773,
  "Ġdisputes": 16366,
  "rad": 4277,
  "×": 146,
  "Ġcheap": 6492,
  "Ġconcentration": 11032,
  "ĠWatts": 26234,
  "Ġworks": 2453,
  "istance": 11140,
  "ĠCamera": 22866,
  "ĠLund": 28199,
  "PORT": 26182,
  "ĠWalter": 14089,
  "arrass": 8183,
  "static": 20739,
  "Ġobligated": 31061,
  "Ġdismant": 21326,
  "Ġpairing": 23147,
  "Ġcontention": 18822,
  "ĠPrep": 22908,
  "Ġtraps": 22313,
  "Ġexposure": 7550,
  "Ġentirety": 19668,
  "Ġalways": 1379,
  "Ġwhichever": 29370,
  "Ġsolicit": 31221,
  "ĠAud": 8924,
  "Sah": 30500,
  "ĠTitan": 14915,
  "Ġkeen": 11211,
  "ĠIMF": 18877,
  "Ġbarbecue": 30942,
  "Ġaccuse": 20598,
  "uzz": 5239,
  "Ġsolid": 4403,
  "Ġattend": 4726,
  "ĠAthens": 18558,
  "Another": 5644,
  "omy": 9587,
  "on": 219,
  "Ġquite": 2329,
  "ranged": 31202,
  "ĠJessica": 16287,
  "Ġpumpkin": 29455,
  "Ġolig": 21022,
  "ĠJen": 12068,
  "Ġphilos": 5148,
  "Ġspectators": 26799,
  "Ġvein": 24578,
  "ĠDE": 11343,
  "ĠMRI": 28279,
  "ĠVictor": 7271,
  "seven": 24959,
  "Ġenduring": 20260,
  "ĠLauren": 22548,
  "ĠFill": 30720,
  "ãĤĬ": 31663,
  "370": 26422,
  "Ġswamp": 26768,
  "ĠHollow": 27574,
  "Ġdaughter": 4560,
  "ĠOT": 24433,
  "Ġallowed": 2898,
  "Ġfever": 16817,
  "âĢĿ),": 19183,
  "Ġaviation": 19482,
  "Mal": 13485,
  "Ġfunded": 8893,
  "Ġbankruptcy": 13876,
  "ĠNathan": 15899,
  "ndra": 18943,
  "Ġraised": 3960,
  "Ġcredentials": 16063,
  "Ġmessages": 5861,
  "uador": 20252,
  "Ġlanding": 9504,
  "ning": 682,
  "court": 17403,
  "Ġreferences": 10594,
  "Ġmolecule": 26177,
  "letes": 30506,
  "Ġbucket": 19129,
  "oli": 10098,
  "´": 113,
  "Houston": 30707,
  "Ġfret": 29906,
  "Ġdealing": 6734,
  "heed": 19811,
  "Ġid": 5639,
  "educ": 15911,
  "Ġ2030": 20114,
  "ĠLu": 6886,
  "mittee": 3968,
  "Ġcommittees": 16254,
  "Ġcompanies": 2149,
  "Ġunderwear": 25834,
  "Ġscenery": 31321,
  "Ġdie": 4453,
  "but": 4557,
  "ĠFound": 4301,
  "Ġchurches": 12498,
  "Ġballot": 8794,
  "support": 26225,
  "ĠRiot": 24280,
  "urch": 1702,
  "Ġidentified": 4839,
  "Ġinvestigations": 9244,
  "Ġdrone": 9686,
  "acco": 9101,
  "ĠStrip": 17198,
  "ĠALL": 14896,
  "Ġgap": 6834,
  "ĠCommerce": 14724,
  "Around": 19804,
  "Ġresting": 20448,
  "Law": 15480,
  "makers": 4958,
  "Ġorchestrated": 28929,
  "ĠFebruary": 3273,
  "Ġstudy": 1975,
  "ustain": 16389,
  "ĠMarg": 11147,
  "ĠWays": 28409,
  "ĠSenior": 13514,
  "pecting": 30403,
  "ĠLeeds": 23127,
  "Ġtoile": 12440,
  "ADVERTISEMENT": 13413,
  "Ġrecept": 11775,
  "ĠCed": 23481,
  "oliberal": 22147,
  "ĠSalvador": 21465,
  "Ġinfect": 5436,
  "obil": 23536,
  "ĠHollande": 24834,
  "ĠMinister": 3441,
  "ĠCenters": 20492,
  "ĠEmergency": 18520,
  "Ġwhistle": 12917,
  "Ġmass": 2090,
  "Ġgave": 2738,
  "ĠURL": 13135,
  "sac": 30420,
  "ĠGrant": 11318,
  "ĠCubs": 16454,
  "Ġdispar": 12604,
  "Ġlosses": 7775,
  "Stop": 19174,
  "Ġtransformation": 12366,
  "Ġmund": 23780,
  "ĠNine": 16834,
  "ĠElectronics": 29685,
  "Ġdelivered": 5892,
  "ĠSorry": 22402,
  "Ġnic": 9723,
  "Ġfoundation": 7827,
  "Ġlyn": 27421,
  "Bush": 28270,
  "Just": 5267,
  "chief": 15900,
  "ĠRex": 18781,
  "Ġpolls": 7032,
  "Ġhundred": 3221,
  "ĠHonda": 17167,
  "Ġcup": 7554,
  "Ġaddict": 18332,
  "Ġdeals": 6921,
  "igible": 26450,
  "Ġsolo": 10915,
  "icials": 13049,
  "Matthew": 23658,
  "iers": 3208,
  "Ġhamstring": 29697,
  "cedes": 15736,
  "reating": 18145,
  "Ġknow": 725,
  "DJ": 28075,
  "abilities": 5693,
  "Ġnotification": 16673,
  "ocity": 14029,
  "Ġwarrior": 19618,
  "Ġmonstrous": 29552,
  "icy": 4646,
  "Ġsupervision": 21163,
  "irty": 6128,
  "\").": 18044,
  "ĠWal": 5860,
  "Stud": 13437,
  "Ó": 142,
  "Ġcompromise": 10641,
  "Ġabsor": 9066,
  "Ġstrugg": 3034,
  "Ġdevelopmental": 23314,
  "Ġcasino": 18444,
  "bley": 31677,
  "Ġstake": 8529,
  "Ġfire": 2115,
  "ĠPure": 24122,
  "ĠAk": 9386,
  "Ð»Ð¸": 24213,
  "Ġfrozen": 12767,
  "Ġvector": 17421,
  "Ġenvironmental": 5041,
  "Ġsuppliers": 18739,
  "Ġunreliable": 26444,
  "nex": 15064,
  "assed": 21903,
  "Europe": 13756,
  "Ġplans": 2774,
  "ise": 702,
  "VM": 16556,
  "ĠBreitbart": 14752,
  "Ġcards": 4554,
  "ĠMiles": 20259,
  "arak": 19462,
  "inc": 1753,
  "Talk": 25509,
  "Ġ3000": 24495,
  "missible": 24793,
  "rection": 9418,
  "Ġlens": 11082,
  "Ġshifts": 13477,
  "Ġbeautifully": 20277,
  "Ġpier": 20912,
  "body": 2325,
  "ren": 866,
  "ĠBer": 4042,
  "ĠAMD": 13650,
  "¨": 102,
  "ĠCro": 9212,
  "arent": 1512,
  "Ġaccessories": 20172,
  "iggs": 17377,
  "py": 12102,
  "trained": 30879,
  "izations": 11114,
  "Sp": 5505,
  "imal": 5060,
  "Ġeco": 28651,
  "ĠTou": 25340,
  "Program": 31400,
  "UMP": 23816,
  "Ġhanding": 18287,
  "Ġdisorders": 13112,
  "Ġaffluent": 26968,
  "Second": 12179,
  "Priv": 23369,
  "esse": 28834,
  "Dis": 10396,
  "Ġequally": 8124,
  "Ali": 25325,
  "ĠLennon": 27994,
  "Ġmeal": 10485,
  "Ġye": 13732,
  "Ġexploiting": 23803,
  "Ġhelped": 3518,
  "Ġceiling": 12089,
  "Ġafter": 642,
  "ł": 211,
  "Ġinvite": 13328,
  "Ġconsistently": 8624,
  "Ġstern": 27035,
  "ãĤ¹": 30037,
  "uffled": 29678,
  "scribe": 9581,
  "Ġcareers": 13207,
  "ĠChavez": 23258,
  "Ġhole": 7848,
  "ĠFinals": 17220,
  "ĠHer": 3008,
  "ĠIQ": 17824,
  "Ġconquered": 28703,
  "Ġengineered": 20419,
  "ĠFleet": 22461,
  "Ġcomplementary": 30170,
  "Ġlawsuits": 13825,
  "Ġlift": 10342,
  "Ġbilling": 26988,
  "hello": 31489,
  "awk": 23307,
  "Ġadapting": 28540,
  "Ġcompact": 16424,
  "ĠTay": 22190,
  "Ġexploring": 11771,
  "Ġhold": 1749,
  "xton": 18430,
  "ĠIPv": 27275,
  "ĠSaturday": 3236,
  "Ġdescribe": 6510,
  "Ġves": 9121,
  "Ġslip": 13819,
  "Ġsilk": 26400,
  "Ġmortality": 13897,
  "Ġannual": 4654,
  "Ġscan": 8909,
  "click": 15814,
  "mod": 7189,
  "label": 26130,
  "conference": 31687,
  "Ġroasted": 30769,
  "otally": 25775,
  "aga": 9119,
  "ĠYouth": 17014,
  "uto": 11549,
  "Ġ89": 15336,
  "Ġportrayal": 25941,
  "ĠInternet": 3868,
  "Ġtolerance": 14557,
  "ĠCanadian": 4458,
  "orde": 22281,
  "miss": 3933,
  "Ġlevel": 1332,
  "Ġdrugs": 4511,
  "ared": 1084,
  "Ġms": 20766,
  "Ġabuses": 15958,
  "ipment": 30399,
  "atched": 15262,
  "Ġconscious": 7337,
  "Ġadvantages": 12646,
  "Ġimprisonment": 17564,
  "Ġrant": 25991,
  "ĠBurton": 22212,
  "Never": 12812,
  "Ġgoalie": 22519,
  "Ġprosecute": 20822,
  "ĠComic": 17107,
  "tesque": 31641,
  "Fund": 22343,
  "ĠBritain": 4572,
  "avior": 20206,
  "ĠRobin": 13155,
  "ĠDenver": 9032,
  "enh": 23170,
  "ority": 14869,
  "ĠMcD": 16799,
  "rade": 26754,
  "ĠJFK": 30941,
  "oga": 10190,
  "ĠSkin": 20829,
  "uffy": 16376,
  "orable": 9832,
  "Ġconfident": 5797,
  "ingo": 28645,
  "Book": 10973,
  "Ġsmo": 30844,
  "Ġdisagreed": 21958,
  "mag": 21932,
  "ream": 2279,
  "ĠName": 12106,
  "Ġdistinction": 12404,
  "ĠGhost": 13122,
  "Ġfounded": 7824,
  "oco": 19810,
  "Ġtune": 12431,
  "ĠSox": 13544,
  "1996": 26411,
  "Ġdenied": 5736,
  "icult": 2054,
  "ceed": 2949,
  "adows": 13366,
  "umbai": 15780,
  "Ġsupporters": 4473,
  "Ġdiscussions": 8410,
  "ĠNS": 11692,
  "ãĤĤ": 30629,
  "sal": 24767,
  "ĠRig": 27869,
  "ĠNJ": 19996,
  "ĠRick": 7677,
  "Ġdegr": 22644,
  "Ġgorgeous": 18909,
  "ĠImmigration": 16679,
  "Ġcryst": 18982,
  "ert": 1940,
  "Photos": 19929,
  "Ġpost": 1200,
  "ĠBrewing": 15675,
  "Ġcapped": 24372,
  "Ġconstruction": 4683,
  "Ġgrown": 6486,
  "ixed": 8764,
  "Hub": 15311,
  "Ġprincipal": 9976,
  "oper": 3360,
  "Ġalerted": 23269,
  "ĠBlue": 6158,
  "ĠNit": 27161,
  "Ġcompounds": 16118,
  "Ġknew": 2916,
  "sur": 12307,
  "Ġmathem": 8854,
  "Ġvinegar": 30325,
  "A": 33,
  "Ġcompress": 30211,
  "Among": 11353,
  "Ġcollection": 4937,
  "Ġinfant": 11486,
  "ula": 4781,
  "Ġpractical": 8157,
  "Ġwisdom": 11468,
  "Free": 12925,
  "Ġregulated": 15800,
  "%": 5,
  "Ġfeelings": 7668,
  "ĠTraff": 16903,
  "Ġgauge": 19156,
  "Ġwarriors": 20424,
  "intensive": 30896,
  "ĠArabs": 18911,
  "Ġseparating": 24680,
  "Ġattracting": 20400,
  "Jan": 13416,
  "\";": 15214,
  "utch": 6495,
  "ĠMD": 12739,
  "Ġharder": 6428,
  "Ġadvocating": 19621,
  "Any": 7101,
  "Ġsignature": 9972,
  "Ġparticipated": 12545,
  "Ġundes": 26782,
  "Ġstereotypes": 19263,
  "Ġwaking": 22248,
  "ĠFukushima": 23478,
  "Ġprotester": 26910,
  "Ġwritings": 18581,
  "Ġstopped": 4800,
  "cutting": 25202,
  "Ġfreedoms": 19830,
  "tics": 12956,
  "FK": 25057,
  "Ġlocal": 1747,
  "ĠRevolutionary": 23042,
  "Ġreligious": 3667,
  "ouncing": 16331,
  "Ġsuspension": 10814,
  "Ġseparate": 4443,
  "mm": 5554,
  "Ġstrength": 4633,
  "Ã±": 9847,
  "Ġattempts": 5684,
  "Brit": 13818,
  "Ġclient": 6045,
  "ĠGamer": 23386,
  "Ġfascinated": 25809,
  "ĠShanghai": 17566,
  "Ġmechanic": 20943,
  "Ġshareholder": 26295,
  "song": 30512,
  "Ġexercised": 28468,
  "Ġbrass": 21457,
  "ĠOd": 13453,
  "Ġshares": 7418,
  "ithub": 15278,
  "Ġpiano": 17659,
  "Ġensured": 24690,
  "Ġfourth": 4804,
  "kel": 6523,
  "Ġshells": 20131,
  "anmar": 23246,
  "Field": 26052,
  "ĠWeber": 24268,
  "Ġ500": 5479,
  "Ġprison": 3269,
  "Ġcleanup": 25319,
  "span": 19417,
  "Ġtrain": 4245,
  "Ġhalfway": 17615,
  "ublic": 717,
  "ĠHann": 12009,
  "ĠReading": 13873,
  "Ġ140": 15187,
  "Ġdatab": 6127,
  "hr": 10621,
  "ĠBak": 16692,
  "Ġwow": 29901,
  "Ġmemorandum": 31086,
  "hetical": 18323,
  "Ġstray": 27163,
  "Ġspite": 14567,
  "Ġhockey": 9099,
  "Ġtower": 11081,
  "Ġfilm": 1893,
  "Ġsurgical": 22404,
  "Ġjunior": 10890,
  "Ġdefects": 23864,
  "Ġanonymously": 29015,
  "Polit": 29748,
  "ext": 10508,
  "Ġhence": 13350,
  "assing": 22877,
  "ĠSpencer": 14001,
  "pound": 15575,
  "Russia": 13616,
  "ĠSchedule": 25550,
  "Gall": 27684,
  "east": 23172,
  "usch": 24034,
  "Ġ24": 2440,
  "Ġdivorce": 13088,
  "Ġadmired": 25414,
  "ĠApril": 2645,
  "Ġcandy": 17447,
  "ivor": 23212,
  "Ġcreating": 4005,
  "Close": 29377,
  "Ġprogrammes": 19832,
  "Ġbelieved": 4078,
  "ĠIreland": 6202,
  "Ġgunman": 19566,
  "Ġtraged": 10239,
  "Ġ2050": 25363,
  "terday": 5326,
  "lund": 31290,
  "Ġliterary": 13843,
  "rative": 7854,
  "selves": 1848,
  "Ġmythology": 22393,
  "significant": 29303,
  "Ġparticipating": 11308,
  "Ġassumption": 12167,
  "endoftext": 661,
  "ĠSend": 20655,
  "Ġadam": 23736,
  "akespeare": 17761,
  "ĠPill": 25086,
  "Ġsynthetic": 18008,
  "Ġsteel": 8651,
  "ĠVit": 22954,
  "ressive": 5296,
  "Pro": 3951,
  "Ġunans": 26618,
  "ĠJoy": 13565,
  "width": 13499,
  "Ġfirefighters": 18762,
  "ase": 582,
  "Ġwelf": 8162,
  "false": 21053,
  "irteen": 21680,
  "Ġcelebr": 4173,
  "Ġstatutory": 24064,
  "agers": 6062,
  "Ġfeud": 18150,
  "osure": 4679,
  "ĠHouston": 6383,
  "Ġwhite": 2340,
  "ĠFormula": 17165,
  "Ġbul": 4814,
  "Ġgesture": 16642,
  "Ġtravelling": 14732,
  "ĠPark": 3045,
  "ĠChurchill": 22204,
  "Ġstunt": 20025,
  "Ġthrive": 18389,
  "Ġodds": 9424,
  "umin": 7944,
  "Ġcinema": 17430,
  "testing": 31225,
  "Ġproliferation": 22723,
  "ĠInstall": 25005,
  "Ġarri": 2776,
  "Thank": 10688,
  "ĠOptim": 29952,
  "eer": 29270,
  "ĠJohns": 21537,
  "Ġattended": 7475,
  "Ġreviewing": 15190,
  "prime": 26896,
  "ruce": 24239,
  "Ġstove": 30279,
  "Ġ1920": 13626,
  "files": 26314,
  "Ġbeliefs": 7932,
  "Ġaccordance": 16390,
  "ĠARM": 21442,
  "Ġpursuit": 12908,
  "Ġatroc": 19082,
  "ink": 627,
  "With": 2930,
  "isa": 9377,
  "Ġracket": 31140,
  "Ġliberated": 29646,
  "ottage": 29626,
  "Ġmatch": 2889,
  "ĠPull": 24508,
  "Her": 8709,
  "ĠPyongyang": 18412,
  "aker": 2983,
  "Ġdisability": 15219,
  "ason": 777,
  "Ġboosted": 24655,
  "Ġstated": 4525,
  "allas": 6750,
  "Ġanchor": 16203,
  "verts": 22948,
  "Ġfuturistic": 29296,
  "Install": 30575,
  "Ġapps": 5641,
  "Ġceremon": 17720,
  "Ġcloak": 31984,
  "Ġhoping": 6433,
  "Ġarchive": 15698,
  "Ġholdings": 23831,
  "Ġup": 464,
  "Ġnewer": 15195,
  "ĠAlbert": 8471,
  "ĠGospel": 25335,
  "Ġdivor": 9936,
  "ĠArcher": 27348,
  "j": 74,
  "enez": 9234,
  "ĠSecurities": 24028,
  "Ġdiscomfort": 22969,
  "ĠHun": 7162,
  "ĠJohnny": 14021,
  "Ġint": 506,
  "Ġfurious": 19716,
  "ĠRodgers": 15992,
  "750": 18878,
  "Ġnegotiations": 7537,
  "ips": 2663,
  "Ġexplain": 4448,
  "ener": 867,
  "Ġwond": 3056,
  "ND": 5252,
  "ĠVC": 24354,
  "icans": 19230,
  "engeance": 26639,
  "Ġethnic": 8136,
  "ĠKindle": 21672,
  "etitive": 20560,
  "Ġ911": 14856,
  "vey": 5365,
  "Ġsurgeon": 21609,
  "ĠUSD": 15839,
  "ck": 688,
  "Ġshipped": 14539,
  "irlf": 9366,
  "ĠRoy": 8462,
  "Ġnominations": 21501,
  "ĠDallas": 7286,
  "Ġbitcoin": 7540,
  "Ġinflict": 31362,
  "ĠCasc": 31888,
  "ior": 1430,
  "Ġtit": 2425,
  "Ġbeaten": 11413,
  "orean": 26288,
  "ĠIndustrial": 18880,
  "ĠBishop": 15082,
  "Ġlocals": 14078,
  "Ġhel": 7409,
  "hattan": 10487,
  "ĠRef": 8177,
  "Ġrevived": 25297,
  "aj": 1094,
  "Ġweekday": 25059,
  "sim": 15319,
  "ĠSQL": 17575,
  "auc": 12516,
  "Ġtrips": 11540,
  "Ġfreight": 27420,
  "Ġconverts": 25824,
  "Ġlecture": 14072,
  "ĠGateway": 28674,
  "ĠInstagram": 9722,
  "Ġguild": 24856,
  "anan": 23622,
  "Ġrefrain": 22515,
  "dog": 8925,
  "Ġangles": 18128,
  "ĠWyn": 23344,
  "azer": 19354,
  "olar": 9865,
  "Ġconsole": 8703,
  "Ġdevoid": 31024,
  "Ġprov": 908,
  "Ġreplacing": 11921,
  "ĠPeyton": 28931,
  "oks": 24957,
  "ĠPretty": 23133,
  "Ġexpected": 2548,
  "Acc": 21309,
  "normal": 13202,
  "Ġdescript": 13875,
  "State": 10145,
  "awei": 27679,
  "Ġmoder": 6893,
  "itives": 19525,
  "abetes": 12457,
  "Ġpunches": 24443,
  "ĠOakland": 9928,
  "rov": 17301,
  "Ġdrank": 24510,
  "lickr": 15008,
  "Ġfantas": 21918,
  "ĠForget": 30340,
  "ĠUnivers": 11109,
  "Ġvil": 30518,
  "ĠOfficer": 10743,
  "Ġcontroller": 11328,
  "ĠVari": 28636,
  "Ġcutting": 7071,
  "Ġde": 321,
  "Ġproperties": 6764,
  "Ġ1800": 20902,
  "**": 2012,
  "ĠIDF": 24501,
  "ificial": 29544,
  "Obama": 11227,
  "Ġfiltered": 29177,
  "Ġnewcom": 18828,
  "reon": 26867,
  "Ġpredec": 11580,
  "Ġglue": 24000,
  "ÃĹ": 13661,
  "trans": 9194,
  "ĠSaints": 12576,
  "Ġtaped": 30775,
  "Ġspecified": 13441,
  "thon": 8173,
  "Ġconduct": 3079,
  "earing": 7266,
  "Ġorganizers": 14579,
  "itation": 3539,
  "icating": 15927,
  "Jones": 20805,
  "Ġ#": 1839,
  "Ġcomple": 1229,
  "ĠChristian": 3795,
  "Ġblanket": 18398,
  "Ġincorporates": 30369,
  "even": 9725,
  "ĠCer": 21603,
  "unicipal": 10041,
  "Ġlitigation": 16814,
  "Ġblog": 3493,
  "Ġtimes": 1574,
  "form": 674,
  "Australian": 30509,
  "ĠSens": 15980,
  "Ġstripes": 26904,
  "Ġaer": 9438,
  "Ġdesigned": 3447,
  "Ġknowingly": 28696,
  "Ġbat": 1815,
  "Ġriff": 30467,
  "Ġpat": 1451,
  "atically": 4455,
  "Ġhandle": 5533,
  "Ġslows": 31483,
  "Ġreject": 4304,
  "Ġpositioning": 19957,
  "Ġecological": 20523,
  "Ġcurious": 10702,
  "ĠNam": 18838,
  "118": 25552,
  "independent": 31496,
  "Ġwitness": 4697,
  "''": 15013,
  "Ġost": 15826,
  "Ġcorrespondent": 16028,
  "ĠBucks": 27055,
  "Ġlearning": 4222,
  "Ġinstead": 2359,
  "Ġchecked": 11044,
  "ĠEy": 24384,
  "ĠGren": 23834,
  "Ġwashing": 20382,
  "avy": 2871,
  "th": 356,
  "rev": 19185,
  "ĠLuis": 16657,
  "Ġradioactive": 20525,
  "luence": 23993,
  "Ġinner": 8761,
  "Ġautistic": 30118,
  "ĠHeights": 19227,
  "Ġsigned": 3706,
  "ĠCarp": 23045,
  "ĠEbola": 13685,
  "apor": 14378,
  "yll": 22061,
  "Ġheat": 5224,
  "ĠInterstate": 25405,
  "Federal": 21583,
  "ĠClinic": 27503,
  "enf": 23941,
  "gered": 9794,
  "ĠFant": 10476,
  "ĠEarl": 19324,
  "DD": 22672,
  "Ġreflex": 25101,
  "GET": 21647,
  "Ġlap": 14096,
  "oard": 12243,
  "ĠWestminster": 17568,
  "Swed": 31152,
  "Ġeyebrows": 26313,
  "ĠGerman": 2306,
  "Ġeject": 21154,
  "Ġcyl": 20211,
  "Ġdrove": 9078,
  "ĠEpic": 23117,
  "ĠPress": 4199,
  "Ġcaptures": 20534,
  "people": 13733,
  "Ġguards": 10567,
  "utan": 30645,
  "Ġiceberg": 27656,
  "Ġvegetation": 26935,
  "ĠPh": 1391,
  "Ġprohibiting": 27901,
  "Ġche": 1140,
  "aneously": 26792,
  "Ġthan": 557,
  "Ġmind": 1989,
  "ĠJudy": 28230,
  "ĠAssociate": 26931,
  "Ġsidelines": 20471,
  "Ġremedies": 31845,
  "oting": 10249,
  "Ġshowed": 3282,
  "Putin": 28763,
  "Ġscary": 12429,
  "Although": 6063,
  "oat": 18657,
  "lls": 6969,
  "Ġdessert": 28144,
  "Ġemphasizing": 29603,
  "ĠLed": 19936,
  "Ġclosely": 6419,
  "Ġjurisd": 11336,
  "Ġorganization": 3547,
  "Ġunfinished": 30614,
  "Ġassault": 4122,
  "Instead": 10424,
  "uding": 24892,
  "Ġpartnerships": 19121,
  "Ġpledge": 11815,
  "Ġlosers": 24068,
  "Ġtouring": 20305,
  "ĠBY": 13680,
  "ĠBald": 16440,
  "Ġframe": 4383,
  "OM": 3734,
  "ford": 3409,
  "Ġvariety": 5068,
  "ĠBulldogs": 28995,
  "Ġcaval": 26095,
  "ĠTele": 9543,
  "Ġopenings": 27068,
  "illery": 13994,
  "Ġforged": 22615,
  "ĠBuddhism": 22706,
  "ĠKos": 15855,
  "arly": 834,
  "Fire": 15665,
  "Lin": 21114,
  "Ġfirearms": 11748,
  "Ġsingular": 19246,
  "ugh": 6638,
  "ĠCanal": 26716,
  "Mex": 20084,
  "iov": 19988,
  "Ġseeking": 5179,
  "Ġfreely": 12519,
  "orus": 14991,
  "ĠCairo": 18075,
  "ĠClaire": 22282,
  "ipple": 20013,
  "ĠStories": 18060,
  "ĠEngineering": 15687,
  "Ġmodels": 4803,
  "Ġcamer": 3355,
  "Ell": 29250,
  "bing": 9911,
  "Ġblown": 14945,
  "SL": 9342,
  "Ġsnaps": 13511,
  "ĠModern": 12139,
  "oenix": 9190,
  "Ġbombing": 10841,
  "ĠM": 302,
  "Ġsteady": 10757,
  "Ġvigilant": 25140,
  "Ġumbrella": 21908,
  "bie": 12160,
  "Ġweighing": 19367,
  "Ġhousing": 4837,
  "ĠLynch": 12751,
  "enzie": 22256,
  "33": 3973,
  "ĠStep": 5638,
  "unch": 1905,
  "pose": 18104,
  "ĠMT": 23932,
  "tingu": 27523,
  "ĠHoly": 10860,
  "ĠWagner": 22023,
  "UCK": 22503,
  "Ġsinking": 23679,
  "eight": 24544,
  "Ġresistant": 19538,
  "Ġknown": 1739,
  "Business": 22733,
  "deb": 16686,
  "ĠAr": 1004,
  "Ġtechnicians": 31540,
  "Ġdehyd": 31812,
  "Ġminutes": 2502,
  "olk": 12919,
  "Ġplan": 1146,
  "ĠHigher": 22455,
  "East": 23799,
  "Ġvou": 22677,
  "ĠHeat": 11896,
  "Ġfront": 2056,
  "ĠBe": 1407,
  "Ġrallying": 27480,
  "ĠEstate": 25082,
  "Ġraided": 23597,
  "ĠVill": 9273,
  "Ġfacilities": 6916,
  "ĠZoo": 21232,
  "ropy": 29366,
  "ĠKel": 14251,
  "status": 20970,
  "irsty": 25702,
  "ĠColts": 17622,
  "Ġstronger": 7073,
  "Ġvend": 10225,
  "HS": 7516,
  "Ġ1890": 28729,
  "dropping": 30736,
  "ĠMcCon": 11811,
  "intern": 25949,
  "wiki": 26100,
  "Ġambitious": 11568,
  "finder": 29232,
  "ĠAssistance": 28750,
  "Foreign": 29129,
  "Ġhealing": 13878,
  "missions": 9930,
  "Jud": 26069,
  "Ġrather": 1978,
  "Ġgi": 15269,
  "Ġbase": 2553,
  "ĠSal": 4851,
  "Fre": 24342,
  "Ġbeen": 505,
  "Ġtill": 12350,
  "ĠGift": 30676,
  "ĠTribe": 29665,
  "Ġmin": 915,
  "Ġkn": 591,
  "Ġbikes": 14377,
  "k": 75,
  "ĠSutton": 31626,
  "Ġorche": 14116,
  "ĠSuz": 20056,
  "Ġoperate": 7444,
  "Ġgravity": 13206,
  "ĠHero": 14622,
  "ument": 1860,
  "ources": 3155,
  "Ġsatirical": 30997,
  "Hillary": 16094,
  "ĠEduc": 7414,
  "Ġurging": 13365,
  "itoring": 30542,
  "220": 24899,
  "Ġnightmare": 15116,
  "Ġdisrupted": 24291,
  "reatment": 22156,
  "mediately": 23604,
  "Ġmaintained": 9352,
  "ĠThankfully": 27769,
  "employment": 28480,
  "Ġpeek": 24894,
  "Ġentering": 7948,
  "Ġlower": 2902,
  "Ġ196": 3680,
  "Ġnightclub": 21264,
  "Ġimmortal": 27207,
  "|>\"": 19339,
  "Ġtricks": 15237,
  "Ġfewer": 6423,
  "Ġfossil": 9782,
  "ĠNept": 31206,
  "Ġrefers": 10434,
  "Ġguiding": 23704,
  "Ġattracted": 10852,
  "Ġaimed": 7445,
  "ifications": 7336,
  "Ġeruption": 28839,
  "fired": 21036,
  "ĠSource": 10620,
  "Ġresult": 1223,
  "before": 21102,
  "Ġbri": 26738,
  "Ġlit": 1060,
  "Ġboiled": 29677,
  "iv": 416,
  "Ġdonations": 9557,
  "Ever": 20886,
  "ĠNevertheless": 15096,
  "Dar": 25669,
  "Ġinexpl": 28174,
  "Ġshining": 23044,
  "urb": 4539,
  "Shell": 29122,
  "ĠKeys": 27958,
  "Sur": 14733,
  "Pre": 9768,
  "ĠBarr": 25246,
  "ĠLimb": 24418,
  "Ġflick": 18814,
  "steps": 18905,
  "Ġaspir": 11910,
  "ĠUrugu": 26558,
  "ĠDay": 3596,
  "Ġbears": 12268,
  "ĠDOJ": 20275,
  "Ġhypothetical": 21181,
  "ecd": 18482,
  "ĠLuther": 15442,
  "ĠPapers": 26277,
  "Ġannouncement": 6104,
  "Ġcomprehens": 8299,
  "Ġbuild": 1240,
  "Ġvertical": 13181,
  "Ġfairness": 19206,
  "ĠCorner": 27257,
  "ĠBow": 10203,
  "Ġgrain": 13648,
  "02": 6871,
  "ĠEach": 6335,
  "Ġwhat": 573,
  "ĠTra": 5898,
  "Ġextras": 24868,
  "Ġcleared": 11542,
  "Į": 191,
  "rating": 7439,
  "ĠEagle": 18072,
  "139": 29173,
  "Ġprot": 1901,
  "ĠVan": 6711,
  "cliffe": 30967,
  "Ġ22": 2860,
  "Ġspies": 24572,
  "mal": 7502,
  "aint": 3602,
  "Ġmalware": 15038,
  "Ġhurts": 18799,
  "ĠBud": 9560,
  "band": 3676,
  "ĠEventually": 14975,
  "Info": 26744,
  "Ġcatast": 11824,
  "Ġguaranteed": 10795,
  "Ġfed": 11429,
  "ĠSimon": 10163,
  "ĠTED": 30862,
  "Ġpine": 20421,
  "Ġsurround": 4329,
  "Local": 18489,
  "ĠTimber": 28069,
  "ading": 4316,
  "Ġhorrifying": 27611,
  "Ġbarred": 19689,
  "Ġarrange": 7952,
  "ĠCommunist": 12768,
  "Ġmathematic": 26468,
  "................": 14596,
  "Ġhimself": 2218,
  "2": 18,
  "inental": 18724,
  "ĠMass": 5332,
  "cycl": 18580,
  "Ġprescrib": 23635,
  "start": 12067,
  "âĢ¢âĢ¢âĢ¢âĢ¢": 27132,
  "Ġresponsibility": 5229,
  "Ġimplicit": 16329,
  "Ken": 20328,
  "Ġburnt": 23852,
  "Ġfacts": 6058,
  "Ġtastes": 18498,
  "uments": 3040,
  "patrick": 23642,
  "ĠGround": 16332,
  "ucky": 4936,
  "Ġpunishment": 9935,
  "ĠPDF": 15882,
  "Ġstall": 22694,
  "Ġunaware": 15475,
  "evil": 23929,
  "season": 4810,
  "ociated": 19590,
  "Ġabsolute": 3992,
  "ĠDoing": 24804,
  "Ġbipartisan": 15086,
  "Ï": 138,
  "ĠTur": 3306,
  "ĠRockies": 27757,
  "Ġleft": 1290,
  "Ġdeeply": 6745,
  "Ġdefinitions": 19109,
  "ĠAward": 9236,
  "Ġideologies": 28985,
  "ographic": 6632,
  "closed": 14708,
  "Ġflower": 16592,
  "plus": 9077,
  "Ġstellar": 20381,
  "ĠEvolution": 21364,
  "Ġgag": 28895,
  "Ġmel": 7761,
  "Ġafford": 4674,
  "ĠDol": 24534,
  "Ġpursued": 16842,
  "Ġthreatens": 16971,
  "Ġ23": 2962,
  "Ġdin": 5427,
  "Wood": 25800,
  "plom": 5688,
  "Via": 24137,
  "ĠIX": 24457,
  "Ġneo": 15573,
  "ĠCub": 6284,
  "ĠAlt": 12920,
  "Yet": 9160,
  "Ġbandwidth": 19741,
  "bow": 9252,
  "obby": 5162,
  "ĠLiter": 20127,
  "mb": 2092,
  "uma": 8148,
  "Ġlac": 28437,
  "Ġul": 25801,
  "ĠAub": 16944,
  "ĠOrlando": 10536,
  "iate": 8959,
  "chron": 12064,
  "Ġ:)": 16932,
  "minute": 9321,
  "Ġinserted": 20708,
  "Ġproperly": 6885,
  "info": 15287,
  "Ġheroic": 21713,
  "Ġ1985": 12413,
  "Ġpunt": 27137,
  "Ġfoolish": 19349,
  "Ġhonors": 21691,
  "aches": 3468,
  "Ġexclude": 20212,
  "ĠAges": 24304,
  "Ġexecute": 13098,
  "Ty": 9511,
  "isure": 21159,
  "ĠMemorial": 13143,
  "wright": 25332,
  "ĠAdventures": 26948,
  "leased": 15812,
  "Ġpossessions": 20816,
  "Ġadjacent": 16377,
  "Ġlogin": 20622,
  "Ġendeav": 21596,
  "Ġinconven": 19476,
  "ĠLoc": 17513,
  "Ġinformant": 30011,
  "Ġclergy": 23415,
  "ĠMySQL": 31200,
  "Ġconcerning": 10365,
  "ĠRifle": 25254,
  "Ġintric": 20278,
  "Ġtheir": 454,
  "Ġembed": 10894,
  "b": 66,
  "Ġmerchand": 18527,
  "Ġactivities": 4628,
  "Bern": 19596,
  "Ġusername": 26501,
  "Ġmut": 5155,
  "2016": 8546,
  "ãĤĭ": 19571,
  "Ġvolunt": 11215,
  "Ġyeast": 20843,
  "ato": 5661,
  "Ġarm": 3869,
  "ibo": 24182,
  "Ast": 29661,
  "ĠCombat": 22564,
  "Carl": 23327,
  "Ġshadows": 17432,
  "ear": 422,
  "ĠRegardless": 20754,
  "oxide": 30837,
  "Ġpneumonia": 30810,
  "Ġexert": 24479,
  "ĠRiver": 5395,
  "Bre": 12201,
  "Ġcurrencies": 15929,
  "Ġunres": 31696,
  "Ġcharacter": 2203,
  "Ġ1915": 27006,
  "ĠEthiop": 19192,
  "Ġbury": 27097,
  "ĠDocument": 23381,
  "ket": 5580,
  "UL": 7702,
  "Ġpinned": 27702,
  "ĠPresidents": 29452,
  "ocation": 6954,
  "pling": 12091,
  "ĠPlanet": 15083,
  "Ġrisks": 6794,
  "Ġfelony": 14808,
  "ĠCli": 19250,
  "Con": 4259,
  "Ġbund": 12133,
  "Ġcultiv": 11981,
  "Ġwelcome": 6811,
  "Ġincorporated": 16598,
  "ĠTitans": 18399,
  "Ġfiery": 26927,
  "Ġbutter": 10409,
  "sized": 12612,
  "ĠFelix": 27508,
  "ĠJavascript": 23687,
  "ĠArk": 9610,
  "Ġfilmed": 14459,
  "ĠRobertson": 19122,
  "uncture": 28949,
  "iller": 4491,
  "ĠLevi": 26347,
  "256": 22905,
  "gen": 4107,
  "ĠQuant": 21917,
  "Ġsunshine": 31054,
  "Ġturmoil": 20998,
  "Ġhour": 1688,
  "ĠOl": 7877,
  "Currently": 18703,
  "Ġsimultane": 9559,
  "aints": 5720,
  "Ġ1959": 20807,
  "ĠThank": 7128,
  "kinson": 22024,
  "Little": 21226,
  "Ġhelps": 5281,
  "Ġwindow": 4998,
  "Ġplugged": 29850,
  "Ġ::": 13571,
  "Ġterms": 2711,
  "Ġaston": 15171,
  "ĠAnything": 21334,
  "ĠLate": 17922,
  "Ġretail": 5400,
  "lud": 712,
  "Ġtaps": 30145,
  "Inter": 12329,
  "ain": 348,
  "ellow": 5923,
  "ordered": 24209,
  "ĠMorsi": 29887,
  "Ġspelled": 28912,
  "Ġmadness": 21663,
  "Ġludicrous": 28740,
  "ificent": 21765,
  "ĠVideo": 9858,
  "ĠAy": 11962,
  "Ġtent": 11197,
  "itarian": 6932,
  "Ġserver": 5112,
  "http": 4082,
  "ĠLand": 7001,
  "GB": 4378,
  "ĠScient": 8843,
  "ĠDo": 2571,
  "Ġmentality": 17089,
  "Ġbeams": 27466,
  "olithic": 25900,
  "Ġairports": 18052,
  "ĠCody": 24839,
  "Monday": 24210,
  "athing": 23569,
  "save": 27094,
  "Ġfiber": 14446,
  "ĠLambert": 30213,
  "Things": 19422,
  "ĠRally": 27639,
  "Ġunidentified": 22632,
  "Ġinsults": 24472,
  "Ġ106": 22037,
  "Nothing": 17809,
  "ĠSchultz": 20591,
  "Ġdimensions": 15649,
  "ĠKir": 7951,
  "Ġgentle": 11951,
  "ĠDh": 19437,
  "Ġincluded": 2908,
  "etic": 5449,
  "elin": 24547,
  "nine": 27858,
  "Ġbroadcast": 5757,
  "Ġvalidation": 21651,
  "Ġdiscredit": 27880,
  "Ġmicrobes": 27389,
  "Ġstatute": 17234,
  "aration": 9760,
  "ĠFell": 21825,
  "ĠCoffee": 21144,
  "ils": 4991,
  "ĠBasketball": 25274,
  "ley": 1496,
  "Ġguides": 18435,
  "Ġactivation": 16861,
  "Ġ112": 22874,
  "eda": 22089,
  "Ġdomains": 20462,
  "Ġdiagn": 6930,
  "Ġfalling": 7007,
  "Ġhistorically": 12265,
  "iber": 1784,
  "Ġcited": 7695,
  "Ġegg": 6581,
  "ĠJac": 7979,
  "ĠMayo": 29633,
  "Ġdoubled": 13359,
  "ny": 3271,
  "FR": 14831,
  "m": 77,
  "ĠTurkish": 7991,
  "ent": 256,
  "Ġlateral": 27133,
  "Ġadmits": 13063,
  "duty": 23226,
  "ref": 7649,
  "ently": 2146,
  "Ġsunny": 25108,
  "fighting": 25625,
  "ocrat": 1539,
  "Ġunsafe": 19992,
  "soever": 15533,
  "anny": 7381,
  "ĠHof": 30611,
  "ĠGolf": 22684,
  "ANT": 15002,
  "ĠScript": 18653,
  "Israeli": 21963,
  "ĠIss": 12703,
  "Ġholder": 19423,
  "Ġgener": 1106,
  "Ġsurv": 3243,
  "ussion": 13324,
  "ĠMake": 8439,
  "Ġcorpses": 29189,
  "Ġpriv": 1728,
  "feed": 14984,
  "Ġcontenders": 21586,
  "Ġorphan": 25218,
  "Ġank": 15774,
  "Ġchip": 10650,
  "Ġbrewers": 26852,
  "Ġdefeat": 6796,
  "ĠCarly": 29873,
  "oldown": 22512,
  "idation": 29631,
  "Ġmos": 9369,
  "Ġinterpretations": 23560,
  "Ġpieces": 5323,
  "ĠNepal": 21962,
  "Ġfame": 14153,
  "otine": 18679,
  "Ġundercover": 19126,
  "Ġready": 3349,
  "oyd": 11660,
  "ĠSea": 7145,
  "Ġsomething": 1132,
  "reach": 14139,
  "Ġpersecuted": 31846,
  "ĠCalvin": 23252,
  "Ġvenues": 17961,
  "cially": 1935,
  "Ġcharacters": 3573,
  "Of": 5198,
  "VID": 15247,
  "Ġtelecommunications": 24292,
  "ĠRiy": 27183,
  "Net": 10557,
  "Ġtransmitted": 19306,
  "enna": 12952,
  "ĠArmor": 28052,
  "Ġeagle": 28404,
  "Ġgrid": 8944,
  "verse": 4920,
  "Ġtread": 24809,
  "aunted": 25022,
  "Ġ+": 2581,
  "olin": 30350,
  "Ġurl": 24734,
  "ĠHirosh": 30884,
  "Ġsaving": 9235,
  "ĠThanksgiving": 18086,
  "introdu": 25989,
  "Ġtrusting": 30881,
  "ĠOklahoma": 9415,
  "ĠEuropa": 22259,
  "ĠPart": 2239,
  "phy": 6635,
  "Ġstrikeouts": 30093,
  "ĠAssad": 9914,
  "ums": 6827,
  "Ġpresumed": 24371,
  "Ġhomage": 26202,
  "Ġcotton": 18069,
  "umbered": 25318,
  "ramble": 27302,
  "ommod": 8477,
  "Ġsmaller": 4580,
  "ĠStock": 11178,
  "ĠJeffrey": 16877,
  "Certainly": 29675,
  "lex": 2606,
  "inity": 7282,
  "Ġshutter": 30498,
  "orsi": 21225,
  "actions": 7433,
  "names": 14166,
  "Ġbegun": 8089,
  "Ġdepiction": 27079,
  "iÃ³n": 17433,
  "Ġsau": 29721,
  "enne": 28040,
  "ĠCaval": 19837,
  "Ġmalf": 26061,
  "thread": 25659,
  "Ġseller": 20681,
  "Ġdiameter": 17867,
  "REL": 14009,
  "Ġtesting": 4653,
  "AL": 2901,
  "ardo": 11179,
  "Ġpatent": 10879,
  "Ġstems": 19873,
  "Ġacceler": 7769,
  "floor": 26818,
  "Ġgenerators": 24023,
  "cycle": 29096,
  "Ġcoined": 26163,
  "inations": 7211,
  "Ġpeak": 8278,
  "Ġlimited": 3599,
  "Ġcivic": 18572,
  "Ġlegalize": 25235,
  "existing": 22932,
  "ĠJust": 2274,
  "Ġdepths": 21145,
  "enton": 23610,
  "Ġmounting": 17197,
  "ĠÑģ": 14841,
  "Ġtying": 24884,
  "Ġluggage": 30023,
  "Ġinsult": 9909,
  "Ġsplash": 21869,
  "Ġexecuted": 10679,
  "degree": 14534,
  "âĻ": 17777,
  "ince": 845,
  "Ġalarmed": 27653,
  "EX": 9609,
  "induced": 19158,
  "ĠPopulation": 26586,
  "oster": 7021,
  "KE": 10712,
  "Ġcomment": 2573,
  "angs": 28885,
  "viol": 14186,
  "Ġdes": 704,
  "Ġinterventions": 18879,
  "Ġprincess": 23607,
  "ĠOlymp": 5660,
  "berg": 3515,
  "Ġpublish": 10900,
  "jav": 30998,
  "ISS": 21027,
  "real": 4846,
  "oring": 2371,
  "Ġacids": 21543,
  "Ġcombustion": 30331,
  "2004": 19799,
  "Ġhailed": 20928,
  "Ġhear": 3131,
  "ãĢģ": 16787,
  "Ġindependence": 8227,
  "Ġcorrectly": 10243,
  "Ġhired": 7941,
  "Ġbro": 1281,
  "ĠMessenger": 28542,
  "craft": 3686,
  "Ġdatabases": 18578,
  "ĠBrazilian": 13652,
  "Ġrolling": 10139,
  "Ġreservation": 24582,
  "dies": 22406,
  "ĠCraw": 18418,
  "Ġapproximate": 29472,
  "secret": 18930,
  "Ġdelicious": 14261,
  "Ġspir": 3861,
  "ĠDomin": 11826,
  "Ġexagger": 14258,
  "ĠDana": 19677,
  "<<": 28134,
  "bit": 2585,
  "ĠTam": 11325,
  "Tw": 16358,
  "emit": 11809,
  "Ġconcentrate": 18957,
  "Ġshallow": 18666,
  "leck": 30190,
  "Ġvisualization": 29871,
  "Ġrealizes": 23793,
  "Ġmutual": 12764,
  "ĠTrinity": 23555,
  "lining": 16597,
  "Ġir": 4031,
  "Ġcomputing": 12218,
  "director": 27431,
  "Ġmenstru": 31586,
  "Ġpose": 11340,
  "ark": 635,
  "ĠFuk": 18726,
  "Ġh": 245,
  "Ġnetwork": 2783,
  "orient": 12458,
  "Ġassure": 19154,
  "Ġdudes": 30670,
  "Ġphysic": 17383,
  "usted": 8151,
  "Ġranc": 27030,
  "ono": 27831,
  "Ġpetroleum": 26211,
  "Ġanalog": 15354,
  "Ġfill": 6184,
  ">": 30,
  "iman": 21862,
  "riv": 10830,
  "Ġpiv": 14709,
  "Ġstruck": 6630,
  "bered": 9619,
  "Ġousted": 27253,
  "Ġdiminished": 20957,
  "Ġdull": 20688,
  "Ġprohib": 6324,
  "Move": 29795,
  "Ġautonomy": 17642,
  "ĠHope": 14687,
  "ĠBroad": 8696,
  "Ġdisarm": 31552,
  "Ġsteam": 13353,
  "agraph": 12188,
  "Ġreunion": 26913,
  "^": 62,
  "ĠPierce": 21783,
  "ĠUnless": 18443,
  "Experts": 29584,
  "Ġretros": 20871,
  "ĠFear": 19433,
  "ĠOttawa": 11144,
  "Ġspeculation": 10782,
  "elve": 10695,
  "Ġpopulated": 18819,
  "ĠCal": 2038,
  "ossier": 24941,
  "Ġleaks": 13909,
  "Ġtotals": 23023,
  "Ġtwenty": 8921,
  "apolis": 9562,
  "Ġ450": 21168,
  "Ġlin": 10625,
  "rive": 6649,
  "Ġancest": 10551,
  "izing": 2709,
  "Ġnote": 3629,
  "armed": 11250,
  "ĠBoyd": 24279,
  "âĹı": 31146,
  "Ġwebs": 2460,
  "L": 44,
  "Ġ125": 16617,
  "Ġgenome": 17982,
  "Ġsacrifice": 12138,
  "Ġ1911": 30003,
  "Ġgreeted": 19089,
  "ĠSans": 22734,
  "Ġhot": 3016,
  "ĠLines": 28768,
  "avin": 20068,
  "ĠKub": 22059,
  "Lo": 27516,
  "ĠCoal": 10455,
  "Ġfright": 12531,
  "Ġno": 611,
  "Energy": 31113,
  "shine": 18754,
  "ĠAb": 2320,
  "Ġspecially": 21162,
  "amic": 21094,
  "Ġ1936": 24742,
  "usra": 22180,
  "aly": 3354,
  "Ġus": 479,
  "Ġweap": 2705,
  "Ġqueen": 17541,
  "dollar": 17402,
  "mill": 16391,
  "mage": 24881,
  "ĠStan": 6028,
  "Ġfer": 11299,
  "ĠLine": 9052,
  "Ġinfluencing": 28667,
  "Ġadd": 729,
  "Roy": 27043,
  "Ġprep": 3029,
  "alf": 1517,
  "Ġfacility": 6353,
  "Ġteaser": 31141,
  "osen": 5211,
  "ĪĴ": 7115,
  "Ġdevoted": 12170,
  "Ġsimple": 2802,
  "Win": 20890,
  "Muslim": 13932,
  "Ġinterviews": 7949,
  "Ġretrieved": 30875,
  "ĠCont": 3051,
  "Ġscrimmage": 30081,
  "Ġstrictly": 14540,
  "round": 696,
  "Ġvarious": 2961,
  "Ġblitz": 25110,
  "Art": 8873,
  "Ġfind": 1052,
  "atility": 17174,
  "Ġcontamin": 27513,
  "Ġschemes": 14432,
  "Ġupd": 2526,
  "lement": 1994,
  "wards": 1957,
  "ĠBruce": 9570,
  "ĠKet": 27412,
  "Ġignorance": 15784,
  "Ġpromoted": 11055,
  "Ġunderestimated": 30760,
  "iler": 7622,
  "Ġregulations": 6360,
  "ĠBernardino": 29281,
  "back": 1764,
  "Ġpending": 11883,
  "Ġpenny": 23951,
  "Ġpros": 3977,
  "Ġbans": 16380,
  "ĠGP": 14829,
  "Ġsandwiches": 27107,
  "ester": 8200,
  "ĠCow": 9334,
  "ĠBernie": 8204,
  "ĠJason": 7977,
  "etc": 20199,
  "atter": 11672,
  "roc": 12449,
  "Ġstandout": 27882,
  "ignment": 20301,
  "Ġcentury": 3593,
  "ĠBernanke": 31541,
  "Ġlegacy": 8842,
  "Ġrequirements": 6763,
  "ĠMain": 9542,
  "Ġ1913": 30878,
  "86": 7609,
  "ĠVote": 21967,
  "ĠAlb": 15633,
  "|": 92,
  "uffed": 16405,
  "Ġcellphone": 20222,
  "ĠTrust": 10500,
  "Ġpersonally": 6990,
  "ieve": 16294,
  "Ġdissatisf": 24044,
  "serv": 8418,
  "Ġrequirement": 9910,
  "Ġopp": 1112,
  "Ġcommitments": 15892,
  "ĠRow": 12119,
  "Ġsolar": 5183,
  "Ġtestified": 13963,
  "ressing": 11047,
  "Ġhills": 19176,
  "Ġinspect": 9767,
  "Ġrebellion": 18735,
  "ĠSummer": 11605,
  "Child": 18006,
  "Ġflashing": 26915,
  "aid": 1931,
  "Ġutterly": 14931,
  "CL": 5578,
  "Ġorigin": 7349,
  "cers": 7015,
  "ĠLG": 15791,
  "Ġcue": 26788,
  "var": 11225,
  "ĠWoody": 31767,
  "Ġoffers": 4227,
  "Ġerosion": 24532,
  "Ġfighters": 7139,
  "Ġsuited": 16023,
  "Ġsed": 9912,
  "Ġelectromagnetic": 30218,
  "ĠRes": 2263,
  "ĠAston": 25630,
  "access": 16796,
  "uably": 11609,
  "ĠPlain": 29785,
  "Ġwhereby": 22580,
  "Ġkicking": 15317,
  "elman": 26559,
  "Ġaccent": 17732,
  "ĠR": 346,
  "dec": 12374,
  "Ġenable": 7469,
  "ilia": 16670,
  "Ġquar": 23376,
  "div": 9634,
  "ĠCount": 2654,
  "ĠStein": 12452,
  "ĠPierre": 18042,
  "ĠWebster": 27077,
  "ĠTurbo": 31543,
  "ONG": 23030,
  "Ġlangu": 2595,
  "ĠCommand": 11000,
  "cos": 5933,
  "Ġrecorded": 5523,
  "Ġaffected": 5462,
  "ACH": 22249,
  "Ġpassages": 23605,
  "Ġfight": 1699,
  "uckland": 24005,
  "Qaida": 29437,
  "ĠIce": 8358,
  "aste": 4243,
  "Ġrally": 6305,
  "zens": 7051,
  "ĠEmpire": 8975,
  "Ġchang": 1409,
  "iably": 16591,
  "Here": 4060,
  "Ġspec": 1026,
  "ĠIB": 31864,
  "ĠScotia": 26409,
  "Ġsurveyed": 17009,
  "rina": 18378,
  "ĠAug": 2473,
  "Background": 25655,
  "Ġdelight": 10237,
  "ess": 369,
  "olkien": 27671,
  "113": 24449,
  "Ġcaucus": 17127,
  "ĠCory": 24474,
  "Ġpatch": 9135,
  "ĠHenry": 7805,
  "Gu": 10545,
  "ĠAbbott": 12402,
  "Ġassistant": 7354,
  "Ġhect": 26238,
  "alker": 22958,
  "ULL": 17378,
  "HT": 9053,
  "Ġcontests": 19157,
  "Ġdownt": 6439,
  "ĠUltimately": 20459,
  "Ġgenius": 14983,
  "icken": 7064,
  "Ġinvested": 11146,
  "Ġlegalizing": 31399,
  "Ġ).": 10102,
  "zman": 26646,
  "haps": 2521,
  "stop": 10607,
  "Ġplate": 7909,
  "ĠComplete": 18552,
  "UPDATE": 13687,
  "mines": 14319,
  "Ġsovereign": 16249,
  "ĠKashmir": 18767,
  "Ġdece": 13288,
  "ĠIndiana": 8976,
  "Ġbriefed": 25518,
  "ctuary": 29756,
  "Ġster": 15572,
  "ĠRandom": 24101,
  "itant": 22876,
  "ĠTyson": 23501,
  "Ġcheckpoints": 29152,
  "Ġdrunk": 10318,
  "Ġtense": 18279,
  "ĠRhod": 19833,
  "Ġinflu": 2740,
  "Ġconsiderably": 14529,
  "Ġback": 683,
  "Ġcop": 2278,
  "Ġfell": 2990,
  "Ġtotalitarian": 27381,
  "ĠOx": 9994,
  "ĠBrief": 22593,
  "ĠGun": 8942,
  "Much": 16399,
  "Ġpodcast": 10394,
  "Ġskull": 14361,
  "Ġspike": 17702,
  "ĠForever": 29084,
  "Ġshade": 20014,
  "Ġgluten": 21897,
  "Ġgrey": 14531,
  "ĠRegiment": 29679,
  "Ġwinter": 6728,
  "length": 16387,
  "Ġfaculty": 12095,
  "Ġdivert": 30115,
  "fan": 16156,
  "Ġremained": 5424,
  "operation": 24311,
  "ographically": 28597,
  "Ġextremist": 16068,
  "camera": 23293,
  "Ġproposals": 9021,
  "Ġsign": 964,
  "Ġvenue": 11957,
  "Die": 30795,
  "orks": 3636,
  "ĠWomen": 6866,
  "ication": 4894,
  "ĠStudent": 16948,
  "Ġabused": 13900,
  "Ġcopied": 20920,
  "His": 5628,
  "enas": 28998,
  "Ġcoral": 24647,
  "Ġslide": 11719,
  "Ġwicked": 25461,
  "ĠHunts": 26378,
  "CAR": 17340,
  "Elect": 19815,
  "Ġivory": 29417,
  "pires": 23995,
  "G": 39,
  "Ġstressful": 24199,
  "Ġruined": 19937,
  "zyme": 27484,
  "ĠVictorian": 20101,
  "amsung": 8020,
  "Ġthunder": 20334,
  "Ġdiary": 25211,
  "ted": 981,
  "ĠGeneral": 3920,
  "Ġaides": 15242,
  "dated": 8829,
  "iverpool": 8562,
  "Ġkick": 4224,
  "Ġentrepreneurial": 31236,
  "Toronto": 25870,
  "Ġcoup": 10187,
  "AH": 25717,
  "Ġsurviv": 9887,
  "ĠBard": 29113,
  "Ġ1971": 15129,
  "iveness": 6643,
  "ĠHammer": 25000,
  "duct": 2434,
  "Ġholy": 13862,
  "ruly": 31419,
  "osing": 2370,
  "Ġconcludes": 16152,
  "Ġmas": 14608,
  "Ġformally": 12505,
  "Ġreply": 12713,
  "ĠProductions": 22689,
  "Ġknockout": 27078,
  "Ġexpon": 20351,
  "Ġsubsidiary": 20626,
  "ĠBest": 6941,
  "Ġ82": 13077,
  "Ġevolve": 15806,
  "ĠReply": 22207,
  "Ġloads": 16516,
  "Ġinert": 29000,
  "Ġfunction": 2492,
  "ĠLevel": 11814,
  "Ġthanked": 22278,
  "Ġtodd": 21246,
  "ĠPRE": 21809,
  "Ġretrieve": 21137,
  "Ġagency": 3463,
  "atories": 18302,
  "Ġmonitor": 8541,
  "Ġadvisers": 16220,
  "circ": 21607,
  "Ġbol": 11172,
  "ime": 481,
  "Ġtravel": 2899,
  "Ġproduct": 1740,
  "Ġslic": 14956,
  "Ġmonetary": 12548,
  "Ġcompletely": 3160,
  "Ġflying": 7163,
  "ĠMode": 15028,
  "Ġcitizenship": 12195,
  "Ġvain": 26487,
  "',": 6295,
  "sted": 25188,
  "ixt": 6872,
  "Ġkinds": 6496,
  "ines": 1056,
  "rig": 4294,
  "ollah": 13386,
  "jet": 24405,
  "ĠPorter": 17644,
  "ĠWAR": 18341,
  "kok": 26794,
  "aughed": 14976,
  "Ġdaunting": 24732,
  "atisf": 16187,
  "Ġrings": 14842,
  "lled": 2641,
  "Ġaccus": 8393,
  "Ġskept": 8987,
  "rath": 22790,
  "Ġdrib": 28745,
  "ideo": 6226,
  "ĠPrim": 15170,
  "Ġupdate": 4756,
  "ĠCotton": 26133,
  "Ġpredicted": 9086,
  "erm": 20237,
  "ĠThames": 31670,
  "Ġprosecutors": 9397,
  "ĠSubaru": 25887,
  "boot": 26350,
  "Ġcausing": 6673,
  "Ġmotor": 6051,
  "Ġvacant": 19603,
  "Ġrole": 2178,
  "Ġmarry": 13860,
  "Ġcommerce": 18362,
  "Ġcolored": 18048,
  "ĠMassachusetts": 8487,
  "Ġfeeds": 19054,
  "UM": 13110,
  "Ġdemon": 14079,
  "ĠLDS": 24701,
  "Ġchat": 7481,
  "fest": 22214,
  "ĠCe": 18977,
  "%.": 7555,
  "Ġremarks": 8377,
  "ĠWestern": 4250,
  "Ġnavig": 18234,
  "friend": 6530,
  "icals": 24855,
  "Ġà¤": 24791,
  "Own": 29224,
  "08": 6457,
  "Ġspar": 31347,
  "Î¿": 18158,
  "Ġdonated": 12994,
  "ĠRadeon": 28022,
  "Ġ62": 10891,
  "Ġrib": 13348,
  "Ġsure": 1651,
  "ĠRecession": 31386,
  "Mass": 19007,
  "ĠVermont": 13517,
  "Get": 4290,
  "ĠPluto": 25763,
  "Ġpigs": 20678,
  "ĠSega": 28007,
  "Ġunlawful": 19241,
  "Ġtraditional": 3985,
  "Equ": 28252,
  "tember": 2688,
  "Ġrelie": 11703,
  "ĠAMC": 27876,
  "Bon": 23889,
  "Ġtapping": 22662,
  "Ġassets": 6661,
  "ĠSolo": 23963,
  "Ġhandic": 28974,
  "ĠTwilight": 23465,
  "Ġhumanity": 8492,
  "idelines": 7672,
  "TION": 12986,
  "Eff": 23511,
  "iza": 21881,
  "ĠGrad": 20481,
  "ĠPublished": 25715,
  "ĠMarvel": 8860,
  "icted": 5137,
  "Ġbringing": 5340,
  "Ġtrolls": 24403,
  "Ġliteracy": 26886,
  "Ġpasses": 7459,
  "ospel": 15209,
  "ĠBomb": 16989,
  "OTO": 25238,
  "Ġaway": 1428,
  "ĠColonel": 21858,
  "Ġstretched": 19070,
  "response": 30491,
  "Ġcompiler": 16820,
  "Ġsurveys": 14656,
  "Ġsharp": 7910,
  "Ġdiagnosis": 14230,
  "Ġimagined": 14179,
  "ĠCurtis": 21131,
  "Ġcurse": 21113,
  "ĠSwitzerland": 12637,
  "23": 3350,
  "Ġsimultaneously": 10857,
  "Ġ256": 23802,
  "olitical": 10942,
  "Pet": 27939,
  "ĠVol": 6181,
  "ĠGib": 10740,
  "Ġartist": 6052,
  "ĠCanter": 31091,
  "Ġintact": 15710,
  "Ġpars": 15678,
  "190": 26594,
  "ett": 3311,
  "Ġcollaps": 10114,
  "Future": 29255,
  "emale": 15717,
  "nered": 12876,
  "Ġostensibly": 24429,
  "Mary": 22373,
  "ĠTah": 21441,
  "inis": 15435,
  "Ġprow": 23136,
  "Ġdisadvant": 13982,
  "ursor": 25271,
  "ĠGriffith": 26365,
  "Ġpil": 5236,
  "Ġarmies": 19232,
  "Ġheated": 15555,
  "Ġclean": 3501,
  "Ġdar": 24676,
  "Ġwit": 15081,
  "fiction": 22121,
  "Ġarchitects": 22425,
  "Ġpou": 25304,
  "ĠYORK": 24374,
  "Go": 4942,
  "LINE": 29658,
  "Ġpartic": 1260,
  "Sal": 18547,
  "Ġnorms": 16538,
  "ĠTy": 4687,
  "ĠOil": 11162,
  "goers": 24159,
  "Ġprobability": 12412,
  "Ġpossession": 7595,
  "Ġweakest": 31145,
  "ĠCBC": 15498,
  "Ġrelation": 10326,
  "Ġregeneration": 31763,
  "Ġtragic": 13248,
  "Ġadap": 11305,
  "Ġdescended": 22543,
  "Ġglyph": 26712,
  "ring": 1884,
  "Ġcannon": 22189,
  "noticed": 26808,
  "Ġmouse": 11279,
  "ĠðŁĻĤ": 28960,
  "Lev": 29549,
  "Ġpurs": 4476,
  "Ġimplied": 18709,
  "Ġvolley": 28676,
  "Ġdenying": 14581,
  "orer": 12131,
  "Mond": 22685,
  "lication": 15541,
  "Ġlegisl": 2910,
  "Ġeru": 11432,
  "Ġpopular": 2525,
  "Ġproudly": 20294,
  "Ġcor": 1120,
  "Rev": 22666,
  "ocur": 12011,
  "Ġallocation": 20724,
  "Ġbishop": 25030,
  "ĠChairman": 10905,
  "Ġmerchant": 22633,
  "Ġreferenced": 20041,
  "åħ": 23833,
  "ĠService": 5101,
  "umm": 12309,
  "Ġbearing": 15131,
  "Ġcooperating": 28330,
  "||": 30194,
  "Ġnationalism": 18737,
  "rian": 4022,
  "ĠFantasy": 13060,
  "he": 215,
  "ĠThan": 20823,
  "Ġimmune": 11154,
  "wit": 1372,
  "Ġseparates": 28928,
  "Ġlymph": 31467,
  "Ġpredators": 19915,
  "Ġslashed": 28456,
  "Ġladder": 17604,
  "ĠChandler": 24853,
  "ĠWen": 31234,
  "Ġtreated": 5605,
  "ERO": 31124,
  "Ġclimate": 3177,
  "imates": 27226,
  "Ġhesitant": 28327,
  "Ġbrutally": 25738,
  "Ġfacial": 15581,
  "Ġbless": 12995,
  "Ġarrests": 11620,
  "ĠReg": 4048,
  "Ġshaky": 28736,
  "ĠBat": 6072,
  "ĠBod": 26630,
  "Ġmurders": 15069,
  "Ġsustained": 11396,
  "ĠSimmons": 20326,
  "Ġ\"": 445,
  "ĠDwight": 25150,
  "ering": 1303,
  "Ġer": 1964,
  "ĠGh": 10872,
  "Ġmonitored": 18129,
  "Ġos": 26453,
  "ĠYork": 1663,
  "Ġdeclines": 21311,
  "ota": 3875,
  "Ġinjunction": 23039,
  "thal": 11434,
  "Ġunivers": 5109,
  "ILL": 11058,
  "ĠGhana": 26551,
  "Ġcontexts": 24643,
  "Ġcaliber": 26923,
  "ĠAvatar": 30148,
  "Ġcents": 13528,
  "Ġprisons": 15735,
  "Ġpeanut": 25493,
  "Ġforeign": 2752,
  "Ġpushing": 6552,
  "Ġsup": 7732,
  "ĠBucc": 28442,
  "Ġsir": 22711,
  "Ġregain": 20108,
  "Ġcheering": 24136,
  "ĠMagazine": 11693,
  "($": 21021,
  "ĠAfter": 2353,
  "ĠSevent": 23108,
  "usiness": 5843,
  "ocking": 5439,
  "Ġexpired": 21255,
  "isol": 30061,
  "Ġtro": 3432,
  "ĠSyrians": 22457,
  "Democrats": 21045,
  "ĠLin": 5872,
  "Ġcommand": 3552,
  "clean": 27953,
  "Ġdangers": 14252,
  "Ġrelevance": 21268,
  "Ġ170": 20214,
  "Ġdisproportion": 15951,
  "Ġdetached": 29622,
  "asm": 14090,
  "andal": 6348,
  "Ġthen": 772,
  "Ġframes": 15128,
  "Ġdespair": 19631,
  "ĠLamp": 29641,
  "asers": 28809,
  "Ġjournalists": 6971,
  "err": 11501,
  "Ġperspectives": 20012,
  "Ġlen": 24530,
  "Ġcountries": 2242,
  "Ġunfamiliar": 19933,
  "Ġequation": 15108,
  "Ġusing": 1315,
  "ĠHM": 27425,
  "ĠARE": 19814,
  "ĠGmail": 26658,
  "iona": 31633,
  "Ġobscure": 16908,
  "Ġ2001": 5789,
  "Ġo": 224,
  "Ġblockade": 24087,
  "ĠGall": 7151,
  "Ġchecks": 8821,
  "Ġfinancing": 13092,
  "Ġjoining": 8242,
  "Ġadvocacy": 12151,
  "ĠREC": 29775,
  "ĠCanad": 1934,
  "Ġclosed": 4562,
  "Ġwasted": 16801,
  "Ġrecover": 8206,
  "ĠNOR": 29621,
  "Ġ1900": 19270,
  "Ġgu": 899,
  "\\": 60,
  "ĠTrading": 28234,
  "Ġantenna": 22535,
  "Ġslid": 29946,
  "ĠMorgan": 9877,
  "Ġpreventing": 11428,
  "Ġsecuring": 16957,
  "ef": 928,
  "Ġconsolidation": 28028,
  "ystem": 7845,
  "square": 20425,
  "ĠPV": 26871,
  "Ġgamer": 24816,
  "Ġ11": 1691,
  "ĠDiablo": 30943,
  "BC": 2277,
  "Ġorbits": 30432,
  "ĠRo": 5494,
  "lifting": 31139,
  "celer": 6960,
  "Ġspr": 7682,
  "ĠAv": 5951,
  "IS": 2109,
  "Ġcream": 9623,
  "aza": 6061,
  "Ġcateg": 4611,
  "Ġbehavioral": 17300,
  "{": 91,
  "ĠMorris": 12278,
  "Ġconnecting": 13536,
  "iving": 1335,
  "irtual": 14486,
  "Ġtuning": 25157,
  "ĠWHO": 20002,
  "ĠDri": 16371,
  "Ġauthored": 27234,
  "Ġsecure": 5412,
  "Ġworker": 7562,
  "Ġexplode": 23220,
  "Ġmorning": 2979,
  "ĠWay": 6542,
  "ĠSale": 17503,
  "ield": 1181,
  "meter": 26597,
  "Ġgenerals": 22890,
  "Ġast": 5646,
  "oppy": 28214,
  "ĠVictoria": 11322,
  "Ġinvestigated": 11096,
  "Pa": 28399,
  "Ġnewborn": 23073,
  "ĠBarack": 6212,
  "alleng": 29299,
  "Ġcrops": 12501,
  "ger": 1349,
  "inch": 8669,
  "Ġofficers": 3220,
  "Ġequality": 9125,
  "Ġlean": 11239,
  "ĠDong": 30663,
  "Ġexcessive": 12780,
  "Ġrealize": 5950,
  "Ġnewslet": 6660,
  "Ġtighten": 29539,
  "Ġunnecess": 10935,
  "Ġradi": 20854,
  "Ġawareness": 8372,
  "Ġentered": 6221,
  "ĠIndustry": 17441,
  "ĠAU": 27034,
  "Ġrecession": 11461,
  "ĠGreen": 3520,
  "ĠMaharashtra": 31463,
  "Ġlivest": 17899,
  "Ġstarring": 15513,
  "Ġadmittedly": 28097,
  "Ġfeels": 4891,
  "Ġruler": 23065,
  "ĠTeachers": 27212,
  "atch": 972,
  "Ġtapes": 21509,
  "ĠAthletics": 29386,
  "urg": 3443,
  "RY": 24105,
  "ĠNew": 858,
  "held": 9336,
  "ĠWant": 17684,
  "Ġimplies": 15410,
  "Ġsetting": 4844,
  "Ġgenerosity": 27942,
  "Ġavoiding": 13635,
  "off": 2006,
  "omore": 17495,
  "Ġsensational": 26157,
  "push": 29645,
  "ĠWeiner": 25441,
  "Ġfifty": 16522,
  "ĠSynd": 22472,
  "Ġtrends": 10006,
  ">>>>": 13770,
  "ĠTree": 17044,
  "Ġdeliver": 4744,
  "Ġirregular": 22385,
  "setting": 30465,
  "Ġforthcoming": 16830,
  "Ġhaun": 16690,
  "Ġprofessionals": 10422,
  "Ġwealthiest": 27105,
  "Ġmasks": 20775,
  "ERY": 24771,
  "val": 2541,
  "ĠBaron": 23717,
  "archs": 29986,
  "Ġlinebacker": 14422,
  "cher": 4102,
  "rights": 21313,
  "Ġreturned": 4415,
  "Ġensuring": 11782,
  "ned": 1154,
  "Ġdeficit": 9051,
  "Ġinsurgency": 25412,
  "Ġinsist": 11153,
  "Ġwage": 6805,
  "Ġimp": 793,
  "Ġ].": 29477,
  "Ġscreening": 13293,
  "Ġintermitt": 29741,
  "Ġblade": 17036,
  "ĠCr": 3859,
  "Ġforfe": 20024,
  "Ġcapabilities": 8956,
  "Ġinsights": 15126,
  "ĠResearchers": 22374,
  "Ġcoat": 15068,
  "pite": 2168,
  "Ġsimpler": 16549,
  "ĠDefense": 6714,
  "caster": 30431,
  "Ġburden": 9822,
  "ĠConsumer": 17533,
  "ĠDro": 30703,
  "Ġcloses": 22488,
  "Ġbolst": 28313,
  "168": 24261,
  "Ġtilt": 25347,
  "ĠDoesn": 28403,
  "Ġner": 15783,
  "rete": 7401,
  "lig": 4782,
  "ĠSHA": 19289,
  "Ġchallenged": 10808,
  "Ġpurp": 3333,
  "ĠEDT": 28417,
  "ĠAC": 8837,
  "Ġchurch": 4421,
  "Ġbuddies": 30701,
  "Ġtraits": 13385,
  "Ġsuperst": 21150,
  "Ġillustrations": 25874,
  "Ġimpart": 22396,
  "olia": 21413,
  "Ġoz": 22747,
  "Ġdrills": 22556,
  "ĠNW": 22171,
  "ĠCrow": 15588,
  "Ġdevelopment": 2215,
  "Ġmiscon": 24535,
  "ilton": 7730,
  "Ġrelaxed": 18268,
  "Ġdistrust": 25709,
  "hett": 15448,
  "Ġur": 2662,
  "Ġ00": 8025,
  "Ġplayable": 22656,
  "Ġagencies": 5146,
  "Ġpublishes": 30067,
  "ĠDaily": 5618,
  "Night": 27411,
  "Ġbacteria": 10880,
  "Ġattempt": 2032,
  "Ġorganizing": 13344,
  "performance": 26093,
  "Ġfair": 2986,
  "ãĢĤ": 14688,
  "Ġfrustration": 11915,
  "pired": 5495,
  "Ġoccupation": 11478,
  "Ġchromos": 24529,
  "file": 11984,
  "Ġwoo": 30438,
  "Ġfascism": 25109,
  "ĠTH": 3308,
  "Ġdisastrous": 16244,
  "bour": 4765,
  "Ġmature": 14632,
  "Ġgeneric": 14681,
  "works": 4483,
  "ĠHow": 1384,
  ".),": 11998,
  "Ġseismic": 31260,
  "ially": 1692,
  "ĠRays": 30260,
  "Ġobservations": 11898,
  "ĠLondon": 3188,
  "ĠCT": 16290,
  "ĠKerry": 12668,
  "Ġunsub": 29333,
  "Ġoriginal": 2625,
  "Ġsystematically": 22333,
  "Ġhandset": 28814,
  "ĠGill": 10955,
  "ĠLabor": 6985,
  "Ã¨re": 26535,
  "ĠNordic": 31304,
  "wald": 19123,
  "Ġsubstitute": 15487,
  "Ġmarking": 17969,
  "ĠBom": 22697,
  "Ġencourage": 7039,
  "ĠMorrison": 19519,
  "Ġhospitality": 30240,
  "Ġprevents": 16175,
  "Ġmembership": 9246,
  "ĠDesign": 9353,
  "ĠUFO": 18960,
  "igated": 23871,
  "Ġenhanced": 13106,
  "Ġ&&": 20839,
  "International": 22834,
  "late": 21758,
  "Ġhoped": 8969,
  "ĠLuckily": 22221,
  "Ġfandom": 28632,
  "Ġdrummer": 26034,
  "Ġjailed": 17475,
  "Ġjustification": 16177,
  "belie": 24579,
  "Ġmarches": 29213,
  "Ġimplications": 9604,
  "Nob": 17892,
  "Ġpainter": 30549,
  "ĠOscar": 12881,
  "Che": 8304,
  "geant": 26046,
  "Ġfulfilling": 23627,
  "Ġroads": 8318,
  "Ġtransport": 4608,
  "soft": 4043,
  "Ġconserv": 3110,
  "ĠArmenian": 22240,
  "Now": 3483,
  "ĠPip": 22532,
  "Ġexclusive": 8111,
  "ĠCEOs": 25129,
  "ĠPlans": 31531,
  "String": 15300,
  "ug": 1207,
  "Ġounces": 25619,
  "Ġarmored": 24198,
  "Ġherb": 20794,
  "Ġvanilla": 20556,
  "ĠFinding": 28841,
  "ĠPlayStation": 11159,
  "atre": 12279,
  "Ġtransitioning": 30885,
  "Ġmyth": 7426,
  "Ġvery": 808,
  "PR": 5717,
  "rimination": 6997,
  "ĠVeh": 20650,
  "ĠWizard": 25245,
  "adas": 31485,
  "Ġcelebrating": 14351,
  "Ġdefined": 6328,
  "Ġgot": 1189,
  "Ġpropag": 7643,
  "ĠDj": 17729,
  "ĠRuth": 19991,
  "ĠDeVos": 29381,
  "INGS": 27938,
  "ĠPAC": 13630,
  "Ġdrafting": 21943,
  "Ġwelcomed": 12687,
  "itative": 13307,
  "ĠSettings": 23324,
  "ĠGOP": 4745,
  "Ġblaming": 19533,
  "ĠOn": 1722,
  "ousand": 31791,
  "ĠIMA": 28463,
  "Ġtentative": 31170,
  "Ġlengthy": 13667,
  "Ġantibodies": 30408,
  "ĠRem": 5522,
  "cing": 2082,
  "zed": 8699,
  "ĠMilitary": 13104,
  "Ġintrinsic": 26549,
  "Ġmerger": 19505,
  "Ġpor": 12225,
  "onen": 29454,
  "Ġvanished": 24161,
  "11": 1582,
  "Ġrepaired": 29898,
  "bird": 19106,
  "Ġciv": 31946,
  "Ġtest": 1317,
  "Ġexists": 7241,
  "vis": 4984,
  "Thread": 28340,
  "Ġunfair": 9895,
  "ousands": 16676,
  "ETH": 28229,
  "ĠEthiopia": 25891,
  "reedom": 3171,
  "ĠKum": 17042,
  "ases": 1398,
  "Ġtr": 424,
  "Ġrunner": 15369,
  "Ġshouting": 17037,
  "404": 31472,
  "stant": 22959,
  "dro": 6864,
  "omin": 6171,
  "Car": 10853,
  "ĠRAM": 14880,
  "Ġdetectives": 20109,
  "ĠGol": 25350,
  "Ġfinding": 4609,
  "Ġrepresents": 6152,
  "Ġeliminates": 31189,
  "ÑĤÐ¾": 21324,
  "ĠAdvisory": 24193,
  "ivil": 2182,
  "Ġjournalistic": 29643,
  "80": 3161,
  "active": 7539,
  "ush": 1493,
  "ĠAfghanistan": 5806,
  "ongyang": 17434,
  "Jewish": 23937,
  "import": 15299,
  "Christian": 17257,
  "Ġsanctions": 7675,
  "ĠMohammad": 22938,
  "Ġinvestigation": 3074,
  "astings": 26879,
  "Ġvote": 2389,
  "Ġlogic": 8469,
  "ICO": 19366,
  "ar": 241,
  "Ġemphas": 5908,
  "Ġ@": 2766,
  "Ġsnack": 26041,
  "Ġworries": 15548,
  "ausible": 15362,
  "Ġsomewhat": 6373,
  "ĠSpell": 28945,
  "Ġsausage": 30887,
  "Lim": 23902,
  "ĠBob": 6291,
  "Ġcomparisons": 17239,
  "Ġvisions": 24180,
  "Ġham": 8607,
  "Ġfishing": 11686,
  "ĠMarcus": 15265,
  "Ġmaze": 29710,
  "âĢ¦.": 10552,
  "Ġvet": 15397,
  "aaaa": 31458,
  "Ġcyber": 7838,
  "Ġdug": 17058,
  "ĠHolmes": 15838,
  "Ġbound": 5588,
  "ĠHaley": 25421,
  "Ġpres": 801,
  "alty": 6249,
  "Ġfaults": 29466,
  "eri": 31245,
  "Ġassaulting": 25610,
  "ĠOval": 21318,
  "Ġreceptor": 20475,
  "Ð¸ÑĤ": 29331,
  "Ġ150": 7563,
  "Ġyourself": 3695,
  "Ġcontrolled": 6936,
  "Ġgo": 414,
  "ĠHers": 23777,
  "MG": 29561,
  "ĠTests": 29034,
  "Ġgaze": 20983,
  "Ġvigil": 14505,
  "Ã¤": 5791,
  "mic": 10020,
  "Ġsiblings": 18567,
  "ĠSha": 19273,
  "Ġrendered": 15956,
  "Ġnortheast": 20203,
  "Ġminiature": 26674,
  "ĠCalgary": 14178,
  "ĠMarsh": 8890,
  "lamm": 12450,
  "ĠWass": 26128,
  "Ġderiv": 16733,
  "Ġblaze": 26718,
  "ĠLars": 27291,
  "Ġdiscontin": 20852,
  "ĠStudents": 16139,
  "Ġauthorities": 4004,
  "clear": 25731,
  "mouth": 13152,
  "Ġarguing": 9330,
  "Ġbinge": 31090,
  ".'âĢĿ": 30307,
  "Ġparameter": 15682,
  "McC": 20035,
  "Ġreliant": 30976,
  "becue": 27485,
  "Ġfireworks": 22560,
  "Ġspe": 673,
  "dan": 23062,
  "Ba": 31349,
  "Ġburgers": 30259,
  "ĠNoah": 18015,
  "ĠSantorum": 24169,
  "ĠPengu": 18291,
  "Ġsenators": 11088,
  "ĠSuper": 3586,
  "âĦ": 12247,
  "ĠDoct": 31353,
  "Ġdis": 552,
  "ĠSaskatchewan": 24452,
  "ĠOrioles": 24467,
  "Ġzoo": 21882,
  "Ġdeclares": 23946,
  "ĠSanta": 8363,
  "orters": 2912,
  "Ġanalysis": 3627,
  "Ġpamph": 28035,
  "Ġafore": 17520,
  "uka": 19076,
  "ĠSov": 5948,
  "estial": 28806,
  "Ġske": 6053,
  "Ġexclus": 4871,
  "ĠWildlife": 18476,
  "OWN": 20065,
  "ussia": 26251,
  "Wednesday": 25672,
  "ackets": 27924,
  "Ġignores": 22469,
  "Ġvalidity": 20995,
  "Ġbarrage": 27855,
  "untu": 11181,
  "ggie": 20149,
  "Ġentertaining": 15749,
  "ĠACL": 14272,
  "'m": 1951,
  "ĠZack": 27968,
  "George": 18513,
  "Writ": 13880,
  "erence": 1891,
  "laughter": 24455,
  "Ġredes": 18407,
  "success": 27664,
  "Ġaffili": 7711,
  "ĠEvidence": 26423,
  "ĠLama": 31014,
  "Ġcasts": 27474,
  "iley": 8948,
  "),[": 30836,
  "ĠSur": 4961,
  "ĠTestament": 21889,
  "Ġfluctuations": 29078,
  "ĠâĢľâĢ¦": 29212,
  "Ġsimulated": 25734,
  "ĠGuy": 13134,
  "Ġgun": 2245,
  "Ġimpover": 24179,
  "Mult": 19163,
  "Ġsub": 889,
  "Ġbiggest": 3206,
  "ĠMargaret": 16983,
  "array": 23599,
  "Ban": 29682,
  "Ġreduces": 14337,
  "mite": 28862,
  "ĠVenezuela": 13216,
  "Port": 15883,
  "ember": 2549,
  "Ġ61": 11482,
  "Ġfunctionality": 11030,
  "Wire": 29434,
  "NEW": 12950,
  "playing": 16364,
  "Ġtwelve": 14926,
  "ĠBaptist": 19124,
  "mat": 8583,
  "ĠObamaCare": 27419,
  "Ġachievement": 12395,
  "Ã«": 26178,
  "Ted": 30702,
  "Ġbeet": 27878,
  "estine": 20158,
  "inos": 13864,
  "Ġaccumulate": 28647,
  "crib": 9069,
  "Ġworld": 882,
  "Ġweather": 5809,
  "Ġstrive": 21945,
  "ĠStatus": 24404,
  "cation": 25207,
  "Ġwarned": 6089,
  "Ġsharing": 6561,
  "ĠShow": 5652,
  "ĠNato": 30490,
  "Ġimpression": 9862,
  "Ġspecialty": 23137,
  "Manager": 25127,
  "ĠONE": 20388,
  "Ġincoming": 14723,
  "Ġseconds": 5038,
  "Ġlev": 23347,
  "ĠJudaism": 22750,
  "Ġadvocates": 8513,
  "Ġdens": 27190,
  "Ġgrips": 31264,
  "Ġastronomers": 23770,
  "Ġwidow": 24568,
  "ĠNor": 4925,
  "Ġgain": 4930,
  "Sound": 26057,
  "Ġuncont": 26955,
  "ĠGas": 14740,
  "Ġincarceration": 22985,
  "ritical": 15411,
  "Interest": 18380,
  "Ġinterviewing": 25873,
  "Ġdispers": 21588,
  "Ġsho": 6858,
  "ensen": 16757,
  "Ġissued": 4509,
  "ĠMessi": 27955,
  "Ġthus": 4341,
  "ĠAccountability": 31175,
  "hardt": 23138,
  "Ġenjoyment": 25447,
  "Ġparach": 27898,
  "Ġspots": 9433,
  "gmail": 19264,
  "ĠHend": 12345,
  "43": 5832,
  "Ġconstrained": 26985,
  "ochond": 23378,
  "ĠBuc": 19712,
  "Ġbankrupt": 10586,
  "Ġsailed": 30313,
  "Ġprovinces": 15557,
  "ĠOECD": 29139,
  "Ġsegregated": 31804,
  "Ġenv": 15986,
  "ĠAmazon": 5277,
  "Red": 10728,
  "Ġprivileged": 18989,
  "Aaron": 28401,
  "ĠDin": 25987,
  "Ġhardware": 6358,
  "Ġdevastation": 28622,
  "ĠAlbuquerque": 31585,
  "ages": 1088,
  "Tit": 23134,
  "Ġinfrastructure": 5378,
  "Ġpunching": 24831,
  "ĠCoast": 7577,
  "ggy": 18565,
  "Ġtales": 17757,
  "Ġbelongs": 14384,
  "Ġwebsite": 2888,
  "Ġoutright": 13392,
  "mitt": 18729,
  "Ġfunny": 7594,
  "Ġruin": 16870,
  "Ġepile": 27164,
  "ige": 11287,
  "Ġincarnation": 30065,
  "ĠThat": 1197,
  "ih": 4398,
  "Ġbatteries": 13159,
  "Ġdelegates": 11862,
  "Ġabolish": 29321,
  "Ġbleeding": 17163,
  "Po": 19968,
  "Ġexpanding": 9818,
  "Ġ69": 12373,
  "Ġ\"\"": 26932,
  "ĠEat": 29720,
  "Ġbarg": 10948,
  "PM": 8202,
  "Ġscholarship": 16721,
  "Ġpackets": 26439,
  "Ġancestral": 31839,
  "high": 8914,
  "argo": 8884,
  "ĠCemetery": 29892,
  "ĠAustral": 2604,
  "ighters": 5524,
  "Ġcontinental": 25122,
  "Ġratio": 8983,
  "ĠMarxist": 22302,
  "Ġsci": 17182,
  "ie": 405,
  "Ġsophisticated": 11723,
  "ikh": 10411,
  "Ġbulk": 11258,
  "Ġseniors": 19297,
  "oin": 25714,
  "ĠSER": 28572,
  "Ġgodd": 19353,
  "iffs": 9645,
  "Ġic": 15599,
  "ppery": 26628,
  "Ġnull": 12740,
  "ĠStafford": 25556,
  "ĠNum": 18769,
  "Ġunrelated": 18032,
  "Ġ1987": 12340,
  "ĠClo": 31247,
  "ĠDavid": 2829,
  "Ġparameters": 11749,
  "Ġexpand": 3808,
  "Ġrating": 7454,
  "Ġdarker": 18555,
  "ĠMSNBC": 16260,
  "ight": 393,
  "Ġterrit": 5076,
  "ĠKosovo": 28649,
  "text": 630,
  "enter": 9279,
  "Ġdegrees": 7432,
  "ĠRush": 14613,
  "Ġlooph": 18809,
  "Ġdetermination": 13605,
  "Ġrum": 6397,
  "ĠCF": 18570,
  "Ġsuperiority": 25214,
  "Ġ1947": 20395,
  "Ġwidth": 12955,
  "we": 678,
  "Ġstructured": 19341,
  "Ġassert": 8910,
  "ributes": 9614,
  "Ġtransparency": 11160,
  "Ġcodes": 13271,
  "Sn": 21722,
  "Ġfiles": 4821,
  "utable": 24481,
  "Ġhedge": 16527,
  "Ġlineback": 12223,
  "face": 2892,
  "contin": 25511,
  "Its": 18280,
  "Ġbuttons": 12836,
  "cus": 7721,
  "Ġrail": 5962,
  "constitutional": 15010,
  "Ġanim": 2350,
  "Ġclassics": 24543,
  "traditional": 30343,
  "Ġcorridors": 28307,
  "IL": 4155,
  "Ġcatastrophe": 21531,
  "ĠKelly": 7551,
  "ĠV": 602,
  "ĠFriends": 13574,
  "pen": 4039,
  "âĸĪâĸĪ": 13346,
  "ĠFin": 4461,
  "Ġrocked": 30324,
  "Ġmerc": 13657,
  "Ġpleased": 10297,
  "ĠGibson": 16749,
  "ĠNigel": 24077,
  "Ġperspective": 5823,
  "ctors": 4531,
  "Ġsmarter": 19827,
  "Ġplainly": 31035,
  "Ġdangerous": 4499,
  "Ġdev": 1587,
  "ĠQueensland": 15967,
  "Ġburger": 22687,
  "ĠFair": 8004,
  "Ġantibiot": 15059,
  "her": 323,
  "plane": 15015,
  "Ġessential": 6367,
  "ĠWend": 19087,
  "efficient": 22047,
  "2007": 16929,
  "Ġretains": 26746,
  "Ġpresenter": 31028,
  "ĠPew": 18139,
  "ĠSuperman": 13911,
  "ĠFlint": 18900,
  "Ġsuccumb": 25342,
  "ĠHaskell": 23541,
  "ĠTehran": 15289,
  "Ġundert": 10058,
  "arr": 3296,
  "Ġstuffed": 21394,
  "Ġappreci": 5545,
  "Ġinsure": 14386,
  "Ġtalking": 3048,
  "Ġrays": 24746,
  "ĠElement": 29382,
  "maker": 8673,
  "ĠGC": 23484,
  "Ġdaylight": 25019,
  "ĠJesse": 16153,
  "ĠSchool": 3758,
  "cill": 14801,
  "Ġ160": 16418,
  "Ġallegedly": 6359,
  "Ġmatters": 5733,
  "ĠBureau": 9033,
  "NO": 17483,
  "Ġwagon": 31253,
  "ĠAbdul": 18350,
  "ĠOkay": 19954,
  "Occ": 28227,
  "Ġexecuting": 22986,
  "Ġquantitative": 25361,
  "rendered": 23317,
  "çĶ": 26310,
  "ĠRoger": 11987,
  "Ġbrought": 2964,
  "ĠJuventus": 31036,
  "Ġaccomplishments": 21990,
  "Ġartwork": 15321,
  "anqu": 28176,
  "double": 27260,
  "Government": 23389,
  "Ġlikelihood": 13595,
  "Ġcock": 10170,
  "lies": 6920,
  "Ġprescribed": 19231,
  "Ġtubes": 21557,
  "Ġsusceptible": 21488,
  "ĠPentagon": 9893,
  "anes": 6575,
  "ĠLarry": 11598,
  "iann": 27217,
  "ĠCopyright": 17302,
  "Ġalliance": 10873,
  "ĠAgriculture": 18546,
  "ĠStorage": 26548,
  "ĠMu": 7708,
  "Ġonions": 25665,
  "Ġapology": 13986,
  "published": 27281,
  "Ġwatchdog": 18566,
  "Ġst": 294,
  "Ġcontributing": 12270,
  "ĠCo": 1803,
  "Ġterminology": 27397,
  "complete": 19836,
  "dar": 25257,
  "Ġsphere": 16976,
  "Ġmorp": 31280,
  "Ġsignificance": 11338,
  "Ġincompatible": 28258,
  "ĠPolit": 6789,
  "ĠJonathan": 9585,
  ".âĢĿ": 604,
  "Ġresulted": 7626,
  "ĠMexicans": 29030,
  "Ġconservatives": 8951,
  "ĠCricket": 28576,
  "ĠLatinos": 26246,
  "Ġquasi": 27660,
  "Ġregulate": 14553,
  "Ġfridge": 26030,
  "Ġmitigation": 30930,
  "Ġpins": 23640,
  "Ġtaxi": 15453,
  "Ġmates": 25259,
  "ĠKo": 17294,
  "Ġcontainers": 16086,
  "Ġrever": 26625,
  "..........": 28766,
  "Ġend": 833,
  "risy": 21801,
  "umbling": 13591,
  "ĠDJ": 12444,
  "Ġlegislatures": 30944,
  "ĠEllen": 22654,
  "Ġonboard": 25587,
  "ĠFrancois": 31566,
  "planes": 20760,
  "Ã¡n": 15688,
  "reci": 26585,
  "Ġnewspaper": 5878,
  "ĠWenger": 22717,
  "ĠRadio": 8021,
  "Ġthr": 5542,
  "Ġregularly": 7191,
  "Getting": 19808,
  "Ġforgiveness": 25885,
  "Ġuh": 26259,
  "Ġkill": 1444,
  "Ġswipe": 27118,
  "Ġspecimens": 26498,
  "Ġprogressively": 31978,
  "Ġunpaid": 21721,
  "Ġaltercation": 30580,
  "ÃĤ": 6263,
  "ĠDaniels": 24171,
  "ĠBuchanan": 30122,
  "aughs": 16318,
  "iance": 3825,
  "iously": 1650,
  "ido": 14628,
  "Ġeasing": 25830,
  "win": 4284,
  "Ġinj": 2315,
  "Ġerad": 19845,
  "compl": 23270,
  "ĠVers": 21567,
  "();": 12591,
  "Ġpotatoes": 19286,
  "ĠAgainst": 12390,
  "Ġdissemin": 27740,
  "uese": 16638,
  "ĠSandra": 28822,
  "Ġgenerator": 18810,
  "Ġenthusiastic": 17975,
  "Ġrevel": 8777,
  "ORY": 20866,
  "Ġsubur": 10505,
  "adel": 6624,
  "Rec": 7653,
  "ĠAndrew": 5845,
  "Ġinequality": 10162,
  "Ġshopping": 8960,
  "âĸ": 6890,
  "ĠChamp": 28911,
  "ĠMaduro": 24168,
  "Ġapproaching": 12938,
  "Ġment": 3323,
  "Thirty": 31213,
  "Ġdividends": 25500,
  "ĠQB": 14038,
  "abb": 5128,
  "hower": 26147,
  "Meanwhile": 7876,
  "ĠSoon": 14768,
  "Ġtaught": 7480,
  "lications": 24781,
  "ĠACT": 24445,
  "Ġgunfire": 23705,
  "Ġrud": 28115,
  "ĠClimate": 11582,
  "While": 3014,
  "isphere": 19733,
  "Ġcollecting": 11789,
  "illian": 31644,
  "Watch": 9476,
  "ĠCategory": 28797,
  "Ġdisgust": 25018,
  "Ġshifting": 13606,
  "ĠRegister": 18384,
  "ĠTicket": 27193,
  "Ġing": 6091,
  "alls": 5298,
  "Ġstatue": 14105,
  "vasive": 19750,
  "Ġrece": 1357,
  "ĠPrin": 12791,
  "Reviewer": 29667,
  "ĠAnat": 27442,
  "Ġbullpen": 24345,
  "openhagen": 22749,
  "Other": 5949,
  "Ġviolate": 15305,
  "chy": 27850,
  "Ġdeficiencies": 31501,
  "ptions": 8662,
  "Ġprohibited": 13647,
  "inke": 30598,
  "Ġleader": 3020,
  "Ġclue": 17437,
  "oni": 12991,
  "She": 3168,
  "ĠForest": 11283,
  "Ġhow": 646,
  "Ġdisregard": 22182,
  "Wil": 20187,
  "ĠCox": 15837,
  "ĠSwed": 6205,
  "Ġtour": 3529,
  "Ġgreedy": 29017,
  "Ġ(": 354,
  "Ġlo": 2464,
  "Ġwarm": 6176,
  "Ġaffecting": 13790,
  "lict": 20022,
  "Ġbrush": 16154,
  "ĠICE": 19874,
  "Ġ($": 7431,
  "Ġtemperatures": 8798,
  "ĠLl": 15995,
  "Ġcreation": 5816,
  "ĠPitt": 23088,
  "Ġoperative": 24666,
  "ĠComm": 1923,
  "Sub": 7905,
  "Republican": 19455,
  "aven": 5087,
  "Ġreactions": 12077,
  "ĠArchives": 23191,
  "ĠMinutes": 24661,
  "Ġforwards": 18235,
  "Ġblocks": 7473,
  "ĠDragon": 10072,
  "ĠBurning": 28318,
  "ĠSpotify": 23773,
  "Ġfarmers": 7993,
  "Ġbirds": 9596,
  "Ġdesc": 1697,
  "ĠAlways": 20110,
  "Ļ": 204,
  "ĠIslam": 2803,
  "Ġâī": 20835,
  "ĠCatholic": 6524,
  "Ġpace": 7506,
  "Ġsuff": 2390,
  "Ġgoalt": 21496,
  "ĠPO": 22181,
  "IVE": 12992,
  "article": 22291,
  "Ġlongest": 12231,
  "Ġhurricane": 18936,
  "rar": 24053,
  "Ð¾Ð¼": 24671,
  "Ġunconscious": 16905,
  "Ġecosystems": 23708,
  "Ġwave": 6522,
  "Ġattitude": 8622,
  "Ġreading": 3356,
  "room": 3150,
  "Ġstagn": 18635,
  "marked": 21549,
  "Ġ1500": 23590,
  "claimed": 13347,
  "ĠHebrew": 18228,
  "Ġradar": 11819,
  "Ġretrie": 14598,
  "vable": 21944,
  "Ġservants": 18634,
  "Ġstarting": 3276,
  "Ġprocessed": 14599,
  "ĠDeb": 9525,
  "Ġlongevity": 25764,
  "ĠTerrit": 21148,
  "ĠPower": 5597,
  "Ġgr": 929,
  "usterity": 14824,
  "dc": 28534,
  "iga": 14274,
  "aran": 4462,
  "ĠLaden": 15394,
  "cribed": 13297,
  "ĠTuesday": 2676,
  "News": 8493,
  "BU": 24562,
  "ĠTwitter": 2391,
  "Ġutilities": 17554,
  "ĠGors": 27402,
  "agent": 24099,
  "ĠMen": 6672,
  "Ent": 20964,
  "Ġscans": 22623,
  "jug": 30524,
  "Ġadversary": 30499,
  "Ġsect": 14682,
  "Ġdisturbed": 23342,
  "Ġanomaly": 28291,
  "ownt": 5574,
  "rought": 2702,
  "ining": 3145,
  "ima": 7379,
  "Ġunnecessary": 12217,
  "Ġbeside": 15405,
  "Ġreportedly": 5805,
  "Ġblew": 15948,
  "ĠLiz": 24558,
  "Ġsplit": 5777,
  "Ġreminis": 18138,
  "Ġsample": 6809,
  "ows": 1936,
  "Ġtold": 1082,
  "Stack": 27996,
  "il": 307,
  "1995": 26509,
  "Ġsomebody": 7111,
  "far": 14922,
  "Ġoff": 502,
  "Ġbirths": 27714,
  "Ġprivat": 16311,
  "ĠFamilies": 26386,
  "Ġattendance": 12634,
  "ĠSomalia": 18194,
  "iversal": 26795,
  "Ġinquiry": 10082,
  "ë": 166,
  "Ġscientifically": 28610,
  "af": 1897,
  "ppo": 13950,
  "____": 2408,
  "Ġbully": 23758,
  "Ġrank": 4070,
  "Henry": 28031,
  "Ġasteroid": 21029,
  "âĹ": 22946,
  "Ġweaknesses": 18030,
  "Wind": 14977,
  "hero": 10506,
  "Ġhilar": 16150,
  "Ġspons": 6141,
  "ict": 664,
  "input": 25326,
  "cil": 2487,
  "Ġlottery": 18864,
  "Ġcriticizing": 20402,
  "ĠDemon": 29169,
  "Ġinfluenza": 30479,
  "Ġallowance": 27578,
  "Ġtroll": 25372,
  "ordinates": 31116,
  "Ġcontradictory": 25793,
  "Ġreview": 2476,
  "Ġ^": 14212,
  "Ġundocumented": 16997,
  "irling": 23083,
  "Ġdraws": 13090,
  "Ġsand": 6716,
  "Ġprojected": 11407,
  "Ġprim": 2515,
  "ĠLE": 14938,
  "Ġghost": 11785,
  "ĠFrances": 23828,
  "Ð¾Ð¹": 31263,
  "ivid": 1741,
  "ilated": 30319,
  "ĠJim": 4728,
  "Palest": 23551,
  "Ġget": 600,
  "Ġcurved": 27743,
  "13": 2174,
  "Ġstuck": 7312,
  "ĠAlp": 10748,
  "Ġ1993": 9733,
  "Ġesc": 3670,
  "Ġdrop": 3744,
  "axy": 6949,
  "Ġdefence": 7565,
  "ĠRestaur": 21664,
  "full": 15496,
  "ĠDictionary": 29691,
  "ĠBj": 28759,
  "fox": 12738,
  "Ġput": 1125,
  "Ġadmit": 7170,
  "ĠNeed": 14851,
  "Ġpair": 5061,
  "ĠBP": 14948,
  "izont": 14276,
  "Ġfundra": 9803,
  "amous": 9948,
  "Ġvariation": 13116,
  "amo": 15234,
  "ĠII": 3514,
  "Ġgains": 8715,
  "Ġuntil": 1511,
  "âĢĿ)": 11382,
  "Ġcircus": 26413,
  "aling": 5509,
  "Ġsampling": 18592,
  "Ġconsidering": 5567,
  "Ġterr": 9941,
  "online": 28859,
  "Ġnewcomers": 24932,
  "rones": 14901,
  "Ġingredients": 10367,
  "Ġsolutions": 7186,
  "olid": 10761,
  "ĠOpportunity": 28758,
  "Ġadverse": 14750,
  "anc": 1118,
  "Br": 10866,
  "ĠSpringfield": 25300,
  "Ġadvocate": 10440,
  "Ġapplied": 6124,
  "ĠSomali": 26135,
  "released": 27096,
  "scale": 8732,
  "31": 5200,
  "Ġfaces": 5801,
  "Ġmoms": 28790,
  "Ġeasier": 4346,
  "ĠPeninsula": 20553,
  "Ġexecutions": 24682,
  "Ġreps": 21262,
  "Ġenact": 10907,
  "ĠÂ©": 12524,
  "ĠExecutive": 10024,
  "Ġaccessing": 20948,
  "Ġstakeholders": 21374,
  "Ġquestions": 2582,
  "ĠAvengers": 19515,
  "Ġshrink": 20832,
  "Ġleaking": 20735,
  "Ġspying": 17920,
  "ĠMuseum": 8461,
  "Ġcompleted": 5620,
  "ull": 705,
  "Working": 26086,
  "48": 4635,
  "Ġinitial": 4330,
  "Ġaccustomed": 22141,
  "________________________________": 15849,
  "K": 43,
  "ĠTonight": 24391,
  "ĠAndroid": 4873,
  "Ġsuperf": 20081,
  "ĠDunn": 25723,
  "Ġseverity": 20544,
  "Ġpretext": 29008,
  "Nevertheless": 23160,
  "Imp": 28499,
  "Ġfre": 2857,
  "Ġabilities": 9237,
  "ĠNath": 30375,
  "Ġfights": 10293,
  "ĠfÃ¼r": 30709,
  "nar": 17352,
  "ĠWhite": 2397,
  "INK": 22366,
  "Ġmixing": 17033,
  "OD": 5920,
  "ĠRX": 31847,
  "Ġarc": 10165,
  "SE": 10416,
  "Bi": 26113,
  "Ġsung": 21445,
  "Ġhips": 27798,
  "V": 54,
  "Guard": 25623,
  "Ġsudo": 27334,
  "Ġarbitration": 24197,
  "Ġboots": 16014,
  "çļ": 25309,
  "Ġthrough": 794,
  "Ġartic": 14882,
  "Ġeyew": 26595,
  "Ġstudied": 8875,
  "Ġallegation": 20308,
  "ĠPhiladelphia": 7697,
  "ĠCurt": 16868,
  "elia": 29783,
  "ĠBritish": 2919,
  "ĠNem": 24889,
  "Ġbasis": 4266,
  "ĠWis": 27454,
  "Ġsk": 1446,
  "ĠÂĸ": 24037,
  "Ġaffidav": 20082,
  "Ġbeating": 9964,
  "ĠBrady": 12898,
  "Ġdivisive": 22414,
  "izabeth": 9159,
  "Print": 20009,
  "Ġ350": 15184,
  "Ġsod": 17168,
  "Ġubiquitous": 22163,
  "Related": 8601,
  "Ġarray": 8253,
  "ĠBR": 15048,
  "ĠAustralian": 5416,
  "Ġgenerations": 9310,
  "Ġevil": 6961,
  "U": 53,
  "Ġstrengths": 16669,
  "ĠNolan": 22622,
  "Ġurgent": 15464,
  "AST": 15297,
  "Ġspreads": 25165,
  "without": 19592,
  "ĠWi": 10937,
  "ĠSz": 24394,
  "Ġshocking": 12194,
  "Ã¦": 24172,
  "ĠAfrica": 4696,
  "Access": 24478,
  "ĠShir": 23425,
  "Ġobliv": 25311,
  "Jose": 21979,
  "available": 16413,
  "Ġsound": 2181,
  "bern": 27047,
  "ĠRun": 9427,
  "ĠReturn": 14749,
  "Ġow": 17755,
  "Ġparamount": 31906,
  "ĠPo": 8611,
  "Ġmonop": 13495,
  "Check": 11707,
  "particularly": 26902,
  "opular": 15704,
  "Ġoccurs": 10093,
  "ĠMaps": 19655,
  "BL": 12141,
  "Ġcarry": 3195,
  "ographs": 31478,
  "ete": 14587,
  "Ġnaked": 12609,
  "ĠMachine": 15323,
  "Ġjurisdictions": 22570,
  "Ġhosts": 10885,
  "ĠBrendan": 20487,
  "ĠFen": 22793,
  "INE": 14294,
  "Ġz": 1961,
  "ĠSt": 543,
  "oids": 19556,
  "Ô": 143,
  "ESS": 14711,
  "Ġallies": 6898,
  "ĠMcM": 12456,
  "ĠUber": 9860,
  "Ġinher": 11024,
  "ĠBab": 11854,
  "Ġmicrowave": 27956,
  "Ġreleg": 18745,
  "Ġnationalists": 24964,
  "Ġmarginal": 12034,
  "grown": 18421,
  "Ġelevate": 31470,
  "Ġgenital": 25922,
  "Ġtrading": 7141,
  "League": 20540,
  "lium": 28103,
  "Ġpreference": 13139,
  "ĠDot": 20348,
  "estic": 4180,
  "Ġtrans": 984,
  "stay": 28352,
  "Ġowns": 10329,
  "Ġbombard": 29651,
  "Ġexpressing": 14404,
  "Ġsupremacists": 29751,
  "tlement": 23693,
  "uther": 11214,
  "ĠÂ«": 19549,
  "Ġfur": 9344,
  "arted": 11079,
  "Ġinfluence": 4132,
  "ĠChef": 28616,
  "Ġhateful": 25721,
  "Ġvillagers": 23098,
  "ĠPeriod": 22389,
  "ĠBast": 22151,
  "isation": 4767,
  "stood": 6237,
  "Ġdirected": 7048,
  "ops": 2690,
  "entry": 18232,
  "mare": 12162,
  "ĠSergeant": 28672,
  "OTH": 24392,
  "Ġthemes": 11836,
  "Ġlad": 10085,
  "Ġ03": 16266,
  "Ġpackages": 10813,
  "ĠSil": 4695,
  "Ġcontag": 29707,
  "bay": 28671,
  "Ġoperational": 12491,
  "Ġnearest": 18190,
  "Ġcrashing": 21057,
  "ĠThomson": 25684,
  "short": 23463,
  "Ġdistribution": 6136,
  "ogram": 22427,
  "ĠNag": 15039,
  "mid": 11871,
  "ĠHispanics": 26544,
  "Ġcharming": 22399,
  "Ġshred": 20186,
  "Ġartificially": 27997,
  "ĠForm": 9207,
  "Ġcompliance": 12890,
  "ogan": 6879,
  "Ġhex": 21872,
  "ĠCind": 25196,
  "Ġe": 262,
  "Work": 13221,
  "ĠSingle": 19748,
  "Ġsecured": 12552,
  "Ġunion": 5099,
  "Ġbites": 26435,
  "ole": 2433,
  "Ġliterally": 6705,
  "Ir": 21518,
  "Ùħ": 20027,
  "ĠVariety": 31789,
  "ĠUniversal": 13622,
  "Ġaugmented": 26516,
  "ĠVaugh": 25492,
  "Ġlegend": 7936,
  "Ġplagued": 21987,
  "ĠArt": 4493,
  "ĠCrawford": 20504,
  "âĢ¦âĢ¦": 12907,
  "ĠTrade": 9747,
  "Per": 6577,
  "Ġduo": 15156,
  "apego": 31745,
  "Ġprin": 5903,
  "boat": 23239,
  "ĠHuawei": 29910,
  "Ġraping": 29579,
  "Ġbirth": 4030,
  "Pop": 23592,
  "Ġsomet": 978,
  "Ġinfection": 11124,
  "Ġguilt": 14710,
  "Ġtemplates": 25568,
  "ALLY": 23646,
  "Ġabruptly": 23853,
  "ovak": 19451,
  "oured": 7929,
  "ĠRobb": 26883,
  "nces": 3245,
  "Ġtraditions": 13587,
  "Ġconnected": 5880,
  "Ġcertainly": 3235,
  "Through": 12830,
  "women": 23392,
  "tering": 6393,
  "Ġposs": 1158,
  "ĠDoyle": 25994,
  "ĠSqu": 5815,
  "Ġmurderer": 27382,
  "fact": 20051,
  "Ġscrut": 9872,
  "ĠIran": 3140,
  "guided": 19703,
  "ĠAZ": 28421,
  "Pac": 16720,
  "Ġpatches": 17404,
  "oms": 4827,
  "ľ": 207,
  "Ġfix": 3340,
  "ĠManual": 28283,
  "ĠEarn": 25445,
  "ĠScientists": 20071,
  "Ġser": 986,
  "Ġlatest": 3032,
  "ãĤ¤": 30786,
  "vous": 30527,
  "Ġauth": 5911,
  "Ġdental": 23984,
  "guyen": 31453,
  "Human": 20657,
  "Config": 29278,
  "Ġlinem": 17224,
  "Ġhandling": 8692,
  "ĠLA": 8906,
  "son": 1219,
  "gov": 11168,
  "Ġtattoo": 18404,
  "have": 13195,
  "Ġblu": 18561,
  "Ġseparatists": 29077,
  "icles": 3063,
  "Ġsaved": 7851,
  "ĠEmail": 9967,
  "olitics": 17681,
  "chemical": 31859,
  "Ġexclud": 10267,
  "Ġmechanism": 6449,
  "Ġsuc": 6076,
  "Ġcolle": 5156,
  "Ġcomplications": 19170,
  "ĠBristol": 20597,
  "oci": 1736,
  "Client": 28965,
  "ĠAssoci": 3534,
  "!).": 19501,
  "Ġimpaired": 23274,
  "Ġusers": 2653,
  "iani": 19472,
  "ĠManning": 11665,
  "rown": 2772,
  "ĠFlex": 31438,
  "TER": 9713,
  "References": 13440,
  "ĠAHL": 24588,
  "Ġreflects": 11307,
  "dem": 8237,
  "aded": 5135,
  "Ġunthinkable": 31505,
  "Ġsie": 13976,
  "ĠChester": 25940,
  "ĠXX": 28088,
  "Ġmoves": 6159,
  "ĠâĪ": 17823,
  "Ġstrangely": 29294,
  "orig": 12653,
  "bians": 26381,
  "Ġcommentary": 11889,
  "Ġfalsely": 21320,
  "Ġmysterious": 11507,
  "opez": 17410,
  "Ġtrapped": 12708,
  "Ġmanipulated": 22014,
  "ĠWard": 11930,
  "ced": 730,
  "Ġben": 1785,
  "ĠGates": 13766,
  "irth": 3488,
  "nav": 29699,
  "Ed": 7403,
  "umber": 6604,
  "Ġpromotion": 10572,
  "ĠProm": 12314,
  "Ġassociates": 17677,
  "ĠAmy": 14380,
  "ĠKnow": 10515,
  "ĠMug": 27254,
  "osate": 31562,
  "ĠMiy": 26724,
  "Ġruling": 5402,
  "Ġlabs": 24081,
  "Ġbicycles": 30620,
  "ĠGET": 22683,
  "Ġinformation": 1401,
  "Ġpredictable": 16802,
  "ĠHezbollah": 17012,
  "agogue": 25848,
  "Ġbash": 28400,
  "Ġfilmmaker": 20250,
  "ĠSteelers": 17708,
  "ĠDeclaration": 23764,
  "free": 5732,
  "ĠDavis": 6579,
  "Ġ68": 11497,
  "½": 122,
  "Ġdesired": 12518,
  "rifice": 11190,
  ",''": 17473,
  "designed": 26805,
  "Jason": 22470,
  "Ġ8": 1075,
  "quet": 21884,
  "Ġcontrols": 7195,
  "Ġglove": 27145,
  "Such": 14145,
  "ĠWC": 25931,
  "Ġneighbourhood": 15790,
  "ĠRepresentative": 18000,
  "Ġapplications": 5208,
  "Ġprogrammed": 25569,
  "power": 6376,
  "Eng": 12236,
  "aning": 7902,
  "ui": 10117,
  "ĠDesigner": 31618,
  "display": 14127,
  "Ġcompar": 4610,
  "Ġmaneuver": 19337,
  "Ġrushed": 12757,
  "ĠFit": 24061,
  "Way": 25241,
  "ĠBelg": 9442,
  "ans": 449,
  "Cook": 31327,
  "Ġborrowed": 20102,
  "._": 27387,
  "Ġdark": 3546,
  "Ġwaited": 12846,
  "ĠPerhaps": 8026,
  "Ġ=>": 5257,
  "ioxide": 13768,
  "ĠFirst": 3387,
  "Ron": 22027,
  "ousse": 23156,
  "ĠStarting": 19752,
  "ĠRica": 27904,
  "Ġranch": 25433,
  "Ġasking": 4134,
  "ĠNEW": 15566,
  "iding": 2450,
  "Ġchance": 2698,
  "ĠHerald": 16164,
  "Ġbene": 10151,
  "Residents": 31810,
  "ari": 3229,
  "ĠSachs": 18757,
  "Ġoverlooked": 18358,
  "Ġmorally": 19292,
  "Ġresponse": 2635,
  "Ġindirect": 13692,
  "commerce": 22753,
  "Ġcreations": 26263,
  "Ġexpects": 10978,
  "Ġsuperior": 9599,
  "orld": 1772,
  "ede": 16192,
  "Ġshelf": 17577,
  "ury": 1453,
  "ĠBlocked": 23048,
  "Ġsemester": 24998,
  "Ġ2021": 28102,
  "regon": 7192,
  "Ġfounding": 13201,
  "adow": 5719,
  "elected": 20800,
  "Ġdiff": 776,
  "ĠMcL": 13474,
  "Ġactivated": 16836,
  "Ġembod": 19204,
  "Ġserving": 6647,
  "Ġimprisoned": 18731,
  "Ġcreat": 1807,
  "Ġbeneath": 11289,
  "ilot": 23728,
  "Ġprogressive": 8116,
  "Ġtreat": 2200,
  "Ġgraphs": 26735,
  "ĠWell": 4064,
  "shot": 11991,
  "lot": 26315,
  "Ġbatch": 15271,
  "Ġsubstantial": 8489,
  "ĠGoodman": 25920,
  "Ġstepping": 14721,
  "oulos": 16906,
  "////": 19362,
  "Ġlimits": 6982,
  "ĠSure": 10008,
  "cha": 13280,
  "Ġmidterm": 31079,
  "Ġcompetitor": 17244,
  "inding": 7339,
  "des": 8638,
  "Ġenzyme": 30252,
  "Ġboil": 23163,
  "Seven": 27146,
  "ĠRot": 18201,
  "Ġretweet": 31194,
  "Ġ$": 721,
  "ĠBelfast": 22845,
  "onic": 7230,
  "Ġpublished": 2715,
  "Ġhipp": 17392,
  "ĠClement": 24613,
  "ottom": 15066,
  "Ġengineer": 10103,
  "looking": 11043,
  "ĠIb": 15055,
  "fun": 18103,
  "ĠGarrett": 22704,
  "ĠCohen": 12513,
  "wage": 17241,
  "Ġannexation": 31879,
  "Rich": 13752,
  "Ġropes": 30029,
  "bish": 27555,
  "ĠRepresent": 9904,
  "ĠBit": 4203,
  "ĠMY": 22528,
  "Ġlex": 30338,
  "Ġcocktails": 30623,
  "oving": 5255,
  "Ġdefensively": 26577,
  "Ġwolf": 18670,
  "Ġappropri": 4853,
  "Ġlease": 16293,
  "strap": 27176,
  "ĠIndividual": 21423,
  "ĠPoverty": 27695,
  "Ġminors": 19014,
  "crat": 12630,
  "Ġadministrations": 26573,
  "Ġrenewal": 22634,
  "Ġforms": 5248,
  "acies": 12396,
  "Children": 26645,
  "ĠAdrian": 18502,
  "Ġmeters": 11083,
  "Ġamid": 8593,
  "neutral": 27905,
  "Ġinfluential": 11112,
  "Ġhind": 15102,
  "Ġsessions": 10306,
  "Ġlights": 7744,
  "ERT": 26255,
  "ĠSergey": 29915,
  "ĠEmma": 19006,
  "ĠGawker": 30814,
  "Ġinnov": 5172,
  "keys": 14010,
  "ĠGeneration": 17551,
  "Ġstraw": 15275,
  "ulum": 13723,
  "Ġnervous": 10666,
  "Ġteen": 5275,
  "Ġoffenders": 15843,
  "Ġori": 23532,
  "choice": 22312,
  "Ġgenerate": 7278,
  "Ġwholly": 18808,
  "Everything": 17423,
  "Ġsoutheastern": 31466,
  "ĠVia": 29167,
  "Ġdeb": 1526,
  "Ġmarine": 13693,
  "ĠLux": 19594,
  "ĠProducts": 26562,
  "grand": 21989,
  "lly": 10247,
  "pective": 4736,
  "Ġdoubles": 20955,
  "Ġlob": 22009,
  "Joe": 16891,
  "Ġjoked": 21432,
  "Ġpracticed": 18062,
  "ram": 4003,
  "eter": 2575,
  "ensive": 1776,
  "ĠTrain": 21157,
  "Bl": 4573,
  "last": 15085,
  "ĠLiga": 30280,
  "RES": 14429,
  "pr": 1027,
  "Ġnarrative": 7197,
  "ĠMick": 25982,
  "ĠGN": 17742,
  "ĠAnimation": 27657,
  "ĠMuslim": 3136,
  "Ġtactical": 14779,
  "ĠRut": 17929,
  "Ġtucked": 27208,
  "mined": 15115,
  "nu": 31758,
  "Ġredund": 20684,
  "¶": 115,
  "Ġpublicity": 16190,
  "agine": 11078,
  "Ġenormously": 29814,
  "Ġprospects": 10262,
  "Ġtraditionally": 12921,
  "Ġbod": 18324,
  "Calif": 15818,
  "iÄĩ": 27493,
  "Ġsurreal": 22807,
  "Ġpile": 14313,
  "Ġsoap": 20067,
  "LL": 18868,
  "Ġdisillusion": 31445,
  "Ġsociety": 3187,
  "Ġmystery": 10221,
  "emed": 9281,
  "ĠRapids": 22403,
  "Ġreconstruction": 21524,
  "izz": 6732,
  "ĠRussians": 10886,
  "Ġreproduced": 31798,
  "Ġflowers": 14100,
  "ĠObviously": 14695,
  "ĠCho": 13012,
  "Ġrow": 6203,
  "alian": 6463,
  "Ġconspic": 29491,
  "Ġcove": 22952,
  "ĠInitiative": 17339,
  "Ġchildren": 1628,
  "ĠBraves": 22744,
  "Ġher": 593,
  "lette": 20218,
  "BBC": 27198,
  "amped": 15147,
  "luent": 23572,
  "Ġbooks": 3610,
  "ĠPa": 11392,
  "Ġ138": 31051,
  "ĠShap": 25282,
  "Ġcompared": 3582,
  "Nov": 23589,
  "parent": 19789,
  "Ġpolice": 1322,
  "Ġnud": 22914,
  "era": 7411,
  "Ġtransplant": 22271,
  "ĠSays": 25265,
  "omination": 26430,
  "ĠBlackBerry": 21370,
  "ĠGalaxy": 9070,
  "asury": 9516,
  "ĠVirginia": 5384,
  "ĠNigerian": 27479,
  "Ġestablishing": 13698,
  "Ġacknowledge": 9974,
  "gan": 904,
  "mph": 17870,
  "Ġwinger": 21838,
  "Ġdefend": 4184,
  "Ġlatency": 25136,
  "ĠBaltimore": 8657,
  "ĠPoll": 11790,
  "Ġpenal": 20447,
  "le": 252,
  "2015": 8858,
  "Ġsurrendered": 25490,
  "rison": 6595,
  "Ġthreat": 1974,
  "ĠElection": 12482,
  "change": 3806,
  "ĠAugust": 2883,
  "ffield": 24364,
  "Ġguard": 4940,
  "iversary": 8281,
  "aggering": 17150,
  "prom": 14249,
  "Ġtariff": 31807,
  "Ġdo": 431,
  "tight": 30437,
  "ursday": 2779,
  "Ġaddition": 3053,
  "asio": 22599,
  "Ġsued": 13084,
  "Ġdiscuss": 1973,
  "Ġfacing": 5466,
  "Î¼": 28281,
  "assic": 26828,
  "Ġauf": 28390,
  "Ġviewing": 11673,
  "akable": 28920,
  "ainted": 15641,
  "Ġdatas": 17967,
  "Ġunfortunate": 13093,
  "ife": 864,
  "Ġpulling": 9979,
  "ĠKr": 11161,
  "Ġmedicines": 22365,
  "ĠMatch": 18508,
  "ith": 300,
  "project": 20656,
  "name": 6528,
  "ĠÂ": 1980,
  "Ġsupplying": 25206,
  "ello": 11546,
  "Import": 26734,
  "ĠMean": 8659,
  "gro": 13830,
  "Ġmisc": 11642,
  "ĠBrad": 6813,
  "ĠPatel": 27597,
  "ĠLearning": 19503,
  "ĠFranÃ§": 31711,
  "ĠLaboratory": 16926,
  "Ġheights": 21530,
  "ĠSugar": 22122,
  "Ġly": 25100,
  "Ġdance": 8771,
  "ĠQuarter": 19049,
  "themed": 21556,
  "youtube": 18355,
  "ĠSc": 1546,
  "nings": 19553,
  "ĠTeams": 23509,
  "ĠMarvin": 31827,
  "Ġlegislation": 4349,
  "ĠAfgh": 31115,
  "ĠHonduras": 26224,
  "iday": 2190,
  "ridges": 31775,
  "ĠCorporation": 11245,
  "urbed": 18031,
  "Aut": 18940,
  "Ġconferences": 16486,
  "covered": 29698,
  "ĠExc": 27306,
  "oo": 3055,
  "Ġdeprivation": 28273,
  "ulling": 30136,
  "Ġwitnessing": 25832,
  "ĠMorm": 11339,
  "oves": 5884,
  "artisan": 14349,
  "incinn": 12701,
  "ĠPhil": 4114,
  "ĠAstron": 23726,
  "Ġcommunication": 6753,
  "Ġsegregation": 22132,
  "la": 4175,
  "Ġcouple": 2816,
  "ĠDW": 27015,
  "Ġcorrelation": 15748,
  "ACA": 20921,
  "ss": 820,
  "ĠFl": 1872,
  "Ġwake": 6767,
  "Ġ40": 2736,
  "erala": 27349,
  "Ġanat": 19645,
  "Ġmetaph": 12055,
  "anga": 22016,
  "udes": 8134,
  "ortmund": 24914,
  "Ġskewed": 31015,
  "https": 8052,
  "ĠPast": 15470,
  "source": 13140,
  "Ġeconomies": 12590,
  "astern": 5810,
  "Ġbreach": 12171,
  "udo": 24263,
  "Ġconflict": 4749,
  "ended": 1680,
  "Ġaccurately": 13596,
  "Sty": 27489,
  "Ġmedical": 3081,
  "ĠMinority": 22653,
  "cience": 4237,
  "Ġ);": 11759,
  "ĠFly": 14476,
  "Coming": 25334,
  "etics": 22759,
  "Pinterest": 28107,
  "Ġpeace": 3792,
  "Hill": 13415,
  "ĠObservatory": 20802,
  "Ġformerly": 14350,
  "adder": 30919,
  "Ġmetric": 16046,
  "Ġvectors": 31634,
  "âĢ¢": 4081,
  "operative": 27908,
  "Ġneutral": 7915,
  "Ġhostility": 19959,
  "riage": 3807,
  "inker": 26272,
  "Ġempathy": 18465,
  "Ġmanufacturers": 10255,
  "ÂĢ": 16689,
  "Ġdecision": 2086,
  "counter": 22814,
  "da": 7576,
  "Ġatoms": 20691,
  "Ġtensions": 12644,
  "Ġsupplies": 9040,
  "ĠSounders": 31427,
  "ĠLords": 23703,
  "Ġimagination": 12778,
  "ĠPatri": 8770,
  "ĠPatriot": 23092,
  "Ġawake": 22699,
  "ĠDetails": 20635,
  "Ġgadgets": 28145,
  "Sadly": 29312,
  "Ġmetic": 26945,
  "ones": 1723,
  "Ġpersu": 9470,
  "incre": 22883,
  "Ġsenate": 30208,
  "dream": 29325,
  "Ġshields": 25004,
  "Ġrebel": 11801,
  "ĠEinstein": 20297,
  "Ġensl": 23859,
  "Ġforty": 18054,
  "Ġcasually": 27300,
  "Ġedit": 1461,
  "ĠFTC": 30989,
  "ĠMom": 12814,
  "Ġinvitation": 15870,
  "Ġunw": 7778,
  "Ġprofit": 6988,
  "Ġmisled": 31910,
  "!": 1,
  "Ġharms": 30006,
  "ugin": 25869,
  "Ġunwanted": 19534,
  "criptions": 22439,
  "ĠMinds": 31693,
  "Ġpatrol": 11934,
  "Ġcomo": 31517,
  "sembly": 6156,
  "opers": 20208,
  "Ġexplosives": 18939,
  "ĠEns": 28575,
  "Ġinterpre": 10286,
  "Ġmalicious": 15738,
  "ĠRepe": 24770,
  "Ġchron": 16049,
  "OW": 5350,
  "Ġtargeting": 9163,
  "ĠAdministration": 7962,
  "tier": 20989,
  "Ġmathemat": 10643,
  "Ġexplained": 4274,
  "ornings": 23706,
  "Ġresolutions": 20901,
  "ĠImagine": 16372,
  "Ġhops": 25930,
  "Ġaim": 3581,
  "ĠSN": 11204,
  "roller": 12872,
  "Ġwrestling": 13376,
  "SB": 20844,
  "opsis": 30921,
  "rain": 2719,
  "ourge": 15941,
  "ĠWins": 25633,
  "Ġstomp": 30422,
  "ĠGardens": 25945,
  "loading": 28485,
  "ude": 2550,
  "ulatory": 21254,
  "ĠMurder": 28362,
  "Request": 28219,
  "ĠVern": 21983,
  "ĠNature": 11451,
  "inyl": 19638,
  "Ġindividually": 17411,
  "Ġrac": 3017,
  "Ġcapac": 20169,
  "Ġmayors": 31817,
  "ea": 24382,
  "ĠMoses": 21946,
  "ĠConsequently": 25541,
  "Ġfascinating": 12023,
  "Ġgender": 4953,
  "letcher": 25174,
  "Ġtraumatic": 23368,
  "Ġdrawings": 21828,
  "ĠâĢĿ": 9136,
  "Ġgen": 2345,
  "Ġactiv": 1706,
  "agen": 10347,
  "Ġfe": 663,
  "pes": 7056,
  "Ġrelied": 15249,
  "Fore": 17478,
  "weather": 20219,
  "ucked": 17034,
  "Washington": 14995,
  "sf": 31937,
  "Status": 31003,
  "Ġpant": 25002,
  "Connect": 21998,
  "Ġlived": 5126,
  "Ġ58": 10311,
  "Ġunderstandably": 28779,
  "will": 10049,
  "ĠAcadem": 7152,
  "Ġfortunes": 23462,
  "December": 20758,
  "Ġamazing": 4965,
  "idae": 30995,
  "ĠProtocol": 24895,
  "Ġobservers": 14200,
  "Ġrestored": 14617,
  "vised": 15745,
  "uture": 1590,
  "ĠAustralians": 18585,
  "Ġpraised": 11483,
  "ĠClick": 9337,
  "Ġmur": 4236,
  "Ġ123": 24347,
  "cohol": 5550,
  "ĠComb": 16116,
  "ĠCity": 2064,
  "ĠMart": 3640,
  "gt": 12467,
  "Ġapocalypse": 31281,
  "prov": 14584,
  "Ġslipped": 17628,
  "Ġit": 296,
  "ĠTouch": 16702,
  "Ġcarte": 24078,
  "ĠO": 423,
  "Ġcommuters": 27603,
  "++++": 22989,
  "ĠWings": 17395,
  "Ġsignificantly": 5451,
  "Ġdigest": 17104,
  "Ġshowers": 29727,
  "ĠAttack": 14953,
  "Ġineffective": 20741,
  "Ġbee": 19315,
  "Ġran": 4426,
  "ance": 562,
  "ĠJean": 10034,
  "oi": 22670,
  "Ġcontinuation": 22055,
  "Ġdemos": 29324,
  "Ġlacks": 14908,
  "ĠLinks": 24344,
  "Ġoil": 2697,
  "Ġgeopolitical": 26463,
  "ĠCampus": 25343,
  "Ġuniversity": 5253,
  "ĠStudy": 14845,
  "alla": 25964,
  "Low": 24442,
  "Ġextensively": 18110,
  "Ġhappiness": 11941,
  "Ġspur": 22816,
  "cow": 7031,
  "Ġinstructions": 9440,
  "cal": 10474,
  "ĠDown": 6625,
  "ugar": 16718,
  "Ġraced": 26924,
  "wh": 1565,
  "ynasty": 17362,
  "ctions": 2794,
  "ong": 455,
  "ĠBee": 23522,
  "Ġastronomy": 31205,
  "Ġcheckpoint": 26621,
  "Ġprovoke": 26048,
  "Ġcriminal": 3830,
  "ĠTory": 14156,
  "Ġcultural": 5446,
  "icter": 28678,
  "ĠAsian": 7091,
  "Ġmicrow": 23957,
  "Ġamph": 27155,
  "Ġres": 529,
  "olved": 5452,
  "ĠDaniel": 7061,
  "ĠDis": 3675,
  "</": 7194,
  "Ġexpands": 24265,
  "Ġnetworking": 15768,
  "liver": 12239,
  "Ġsettlements": 15261,
  "ovy": 22482,
  "ĠPacific": 7442,
  "rued": 26358,
  "Ġmust": 1431,
  "Ġcommemorate": 30978,
  "Ġhomicide": 17808,
  "Ġfashion": 6464,
  "aug": 6999,
  "Ġyuan": 28721,
  "Ġguidance": 11282,
  "Ġgoddess": 25743,
  "Ġfl": 802,
  "Ġglance": 16619,
  "atti": 26523,
  "Ġtough": 4878,
  "Ġphysiological": 26032,
  "Does": 14265,
  "ĠWrite": 23458,
  "ĠCritics": 24370,
  "ĠBaby": 16767,
  "onna": 6368,
  "Ġconve": 23818,
  "Ġaffinity": 28017,
  "pard": 26872,
  "ĠKansas": 8123,
  "issan": 21111,
  "Ġequal": 5357,
  "Ġcircumvent": 27351,
  "ei": 18584,
  "ĠSquadron": 30318,
  "ĠRousse": 31418,
  "ĠSmith": 3787,
  "rule": 27532,
  "ĠChapel": 29670,
  "Ġfranchise": 6852,
  "Anna": 27020,
  "Ġhappily": 17848,
  "Ġpillar": 30404,
  "Ġ202": 30704,
  "ace": 517,
  "ruption": 5596,
  "Ġmerit": 15875,
  "ilitary": 15940,
  "me": 1310,
  "ĠCambod": 21382,
  "bank": 17791,
  "Ġinland": 31118,
  "Ġarguments": 6907,
  ")/": 30366,
  "Ġunsuccessful": 19411,
  "Ġinjured": 5929,
  "Ġ1950": 9727,
  "heast": 8193,
  "ï": 170,
  "Ġrecount": 12985,
  "Ġmixture": 12841,
  "ĠStats": 27515,
  "amental": 25285,
  "ĠRobbie": 28005,
  "rim": 4691,
  "Ġreason": 1757,
  "AD": 3566,
  "Ġlittle": 1273,
  "Ġdebris": 15093,
  "Ġranging": 11559,
  "oline": 13287,
  "Ãĥ": 6609,
  "ĠDatabase": 30699,
  "ison": 1568,
  "rew": 1713,
  "ĠBeta": 20045,
  "Ġemot": 3858,
  "ĠSB": 17712,
  "Ġsabotage": 27213,
  "abase": 22242,
  "enberg": 20190,
  "Ġpornography": 16539,
  "Ġborrow": 7841,
  "e": 69,
  "ĠJacksonville": 21188,
  "Ġurban": 6654,
  "Ġanonym": 11709,
  "Ġhumiliation": 28942,
  "ou": 237,
  "Ġclass": 1396,
  "Ġresulting": 7183,
  "Ġyour": 571,
  "oint": 1580,
  "Ġboasts": 18325,
  "Ġattribut": 26813,
  "eline": 4327,
  "eddy": 22607,
  "Ġabsorb": 17691,
  ">>>>>>>>": 28263,
  "Ġdestroys": 28906,
  "erved": 8008,
  "Ġfourteen": 29285,
  "afort": 19321,
  "Ġtrustworthy": 31679,
  "Ġpledges": 24685,
  "ĠMAC": 29540,
  "ĠLeah": 26620,
  "stan": 12303,
  "ale": 1020,
  "Ġsurrounded": 10484,
  "ĠUnited": 1371,
  "Ġevasion": 29722,
  "ĠNaturally": 29575,
  "ĠKurdish": 11455,
  "ĠCITY": 28532,
  "Ġelement": 5651,
  "bomb": 28161,
  "ĠDw": 16871,
  "ator": 1507,
  "Ġinstitutional": 13329,
  "Ġsalv": 23289,
  "ushed": 15937,
  "Ġattempted": 6598,
  "Ġprohibits": 22012,
  "Ġfactions": 16738,
  "Ġthings": 1152,
  "het": 3123,
  "ability": 1850,
  "another": 27398,
  "ĠAzerbai": 24595,
  "Ġconsolidated": 31578,
  "Ġsanctuary": 19893,
  "avier": 23377,
  "endof": 660,
  "ĠZomb": 22169,
  "femin": 29949,
  "why": 22261,
  "Ġapparatus": 20430,
  "Ġwind": 2489,
  "Ġwonderful": 7798,
  "Ġpointed": 5419,
  "Ġsleeping": 11630,
  "API": 31573,
  "Ġbroadcasters": 28971,
  "Ġoutrage": 9392,
  "lide": 23587,
  "ĠDublin": 14500,
  "Ġcent": 1093,
  "ĠTai": 9898,
  "Ġattracts": 28185,
  "Ġscaling": 20306,
  "Ġcollapse": 8181,
  "ĠSF": 15041,
  "Ġradius": 20782,
  "ĠJudge": 8106,
  "aciÃ³n": 23785,
  "Ġind": 733,
  "ihar": 28631,
  "emin": 11848,
  "ĠPu": 22695,
  "Ġunins": 23808,
  "Ġburglary": 28915,
  "ĠColomb": 13869,
  "Ġsays": 924,
  "Ġflux": 27564,
  "omi": 15545,
  "________": 4278,
  "aturally": 7522,
  "ĠJu": 13036,
  "Ġminerals": 21778,
  "Ġflies": 17158,
  "Ġreassure": 30161,
  "ĠSid": 17001,
  "IP": 5233,
  "loc": 24689,
  "ĠScreen": 17916,
  "lb": 24774,
  "Ġbloss": 26633,
  "ĠGovernment": 4917,
  "bart": 12615,
  "Ġepisode": 4451,
  "Ġnorthwest": 21121,
  "ective": 9179,
  "Ġborrowers": 24987,
  "Ġtestosterone": 22936,
  "FBI": 31968,
  "ublished": 10754,
  "Ġunlike": 4357,
  "Others": 20506,
  "Ġblames": 28739,
  "ĠKal": 11517,
  "Ġpatience": 15434,
  "Ġcrosses": 22178,
  "ĠSI": 27650,
  "Ġantit": 22233,
  "Ġmunicipality": 29731,
  "Ġconfined": 19073,
  "Ġcops": 11463,
  "atoes": 12178,
  "ĠNASA": 6991,
  "Ġdeductions": 31768,
  "ĠPatch": 26045,
  "Prov": 22210,
  "eth": 3072,
  "rage": 7320,
  "Original": 23668,
  "Ġ/>": 25705,
  "alph": 13922,
  "ĠEag": 8973,
  "Ġmon": 849,
  "ĠMO": 13757,
  "Ġ1200": 29020,
  "Ġmonuments": 23537,
  "ancing": 4948,
  "valid": 12557,
  "vard": 8599,
  "Ġtribute": 14431,
  "ĠLife": 6118,
  "ĠðŁ": 13586,
  "ĠRoland": 30193,
  "[": 59,
  "ĠMaria": 13210,
  "ported": 8762,
  "ittle": 6445,
  "Ġje": 8530,
  "scenes": 24908,
  "isy": 23617,
  "Ġï": 20370,
  "ĠRole": 23020,
  "Ġevening": 5617,
  "ĠExpect": 23733,
  "Ġlimitation": 22829,
  "Ð¸": 5434,
  "ĠKore": 2970,
  "ĠGreater": 17826,
  "entially": 3194,
  "Ġarrest": 2652,
  "Ġenjoy": 2886,
  "inner": 17716,
  "Ġnarrowed": 31568,
  "Ġ": 177,
  "Ġnorth": 4535,
  "headed": 14726,
  "Ġchall": 2122,
  "Ġdisclosed": 14897,
  "Ġtou": 2710,
  "well": 4331,
  "Ġqualifier": 31764,
  "Ĳ": 195,
  "Ġgrat": 14157,
  "Ġhaving": 1627,
  "Ġmentioning": 18505,
  "Ġsuspicions": 26606,
  "Ġstore": 2735,
  "ĠVolkswagen": 26367,
  "Ġsophomore": 19045,
  "ĠOpinion": 31643,
  "Ġrebounds": 16751,
  "ĠWed": 2729,
  "oner": 12911,
  "ĠNearly": 19215,
  "Paul": 10223,
  "ĠHunting": 25024,
  "ĠForces": 12007,
  "Ġtop": 1241,
  "atform": 3132,
  "iral": 27985,
  "Some": 3826,
  "Ġputting": 4466,
  "Ġrecip": 7706,
  "lopp": 27171,
  "ĠFeel": 22234,
  "Ġju": 7830,
  "Ġoccasionally": 10240,
  "Ġeldest": 30489,
  "ĠChapman": 23321,
  "ĠNet": 3225,
  "Ġtenants": 19296,
  "Ġhysteria": 30055,
  "Ġnarc": 15923,
  "Ġinvestors": 6243,
  "Ġinfl": 6708,
  "Ġimportance": 6327,
  "Ġtension": 11357,
  "idelity": 22940,
  "mur": 28660,
  "was": 9274,
  "ĠCharacter": 23577,
  "Ġtechn": 1380,
  "ĠJuly": 2558,
  "Ġdocumentary": 9127,
  "ĠStro": 30716,
  "regn": 27429,
  "Ġfisher": 15514,
  "Ġrefined": 20307,
  "ston": 3461,
  "ĠMichigan": 5975,
  "ĠBuddh": 18605,
  "Ġes": 1533,
  "Ohio": 23911,
  "hydro": 29832,
  "56": 7596,
  "ĠTottenham": 18556,
  "Ġaccumulation": 23240,
  "Ġpoly": 8565,
  "Ġboundary": 18179,
  "Ġconfronted": 14760,
  "ĠHarden": 29807,
  "Ġmarketed": 24549,
  "Ġamounts": 7085,
  "ĠThreat": 24644,
  "Pal": 10837,
  "Ġstanding": 5055,
  "reland": 5959,
  "Ġabroad": 9097,
  "Ġairlines": 21260,
  "Ġpi": 28356,
  "ĠAn": 1182,
  "Ġbeast": 16860,
  "Ġinvaluable": 27631,
  "Ġreservations": 22598,
  "ieri": 23788,
  "sub": 9897,
  "Ġtropical": 17142,
  "Ġprosecut": 5388,
  "Ġexample": 1666,
  "ĠDick": 10285,
  "usting": 11331,
  "ĠNR": 23058,
  "Ġcoding": 18290,
  "Ġtriggers": 21064,
  "Ġcommenting": 22407,
  "Ġtickets": 8104,
  "ero": 3664,
  "Ġcoward": 25050,
  "reb": 22771,
  "married": 28772,
  "ĠAbstract": 26138,
  "ĠContent": 17281,
  "ĠWITH": 17329,
  "opic": 16354,
  "adium": 5063,
  "ĠSikh": 22446,
  "Ġcult": 2017,
  "Ġcontacts": 13153,
  "Ġimplementation": 7704,
  "Ġdispens": 14389,
  "Ġslate": 22844,
  "Ġextra": 3196,
  "Ġcontributors": 17369,
  "Ġrav": 23328,
  "Ġwashed": 19236,
  "Ġreduced": 5519,
  "Ġtabs": 23090,
  "Ġromance": 19336,
  "Ġrubber": 14426,
  "ide": 446,
  "Ġspecimen": 30622,
  "crime": 23224,
  "Ġhealthy": 5150,
  "LY": 13188,
  "BUR": 31822,
  "hib": 3283,
  "Ġcorporate": 5166,
  "bench": 27162,
  "cuts": 23603,
  "ĠEU": 3772,
  "ĠMissouri": 10428,
  "Ġabandoning": 25773,
  "float": 26485,
  "Ġworrying": 15672,
  "Ġbenefit": 4103,
  "Additional": 20445,
  "ikk": 30586,
  "Ġconfess": 23441,
  "Ġpup": 15443,
  "adi": 9745,
  "Ġdynamics": 15608,
  "lements": 12325,
  "atican": 15034,
  "Ġroles": 7938,
  "Ð»Ð°": 29908,
  "ĠMagic": 9600,
  "Ġeloqu": 30291,
  "Ġaccord": 10968,
  "ĠGMO": 29422,
  "Ġindul": 18753,
  "Ø§": 10113,
  "Ġhovering": 30397,
  "iders": 3878,
  "Ġmarvel": 21785,
  "oirs": 31701,
  "Ġsymp": 8952,
  "ĠCollect": 15495,
  "hi": 4968,
  "Ġfew": 1091,
  "ĠSharp": 23606,
  "ĠOccup": 12874,
  "Ġparticularly": 3179,
  "Ġentrance": 11089,
  "ters": 844,
  "Ġheating": 17054,
  "bo": 2352,
  "Ġemployees": 3955,
  "ĠFollowing": 10585,
  "option": 26854,
  "oom": 4299,
  "OCK": 17878,
  "Ġagric": 7741,
  "Ġfronts": 23649,
  "Ġhalt": 14133,
  "service": 18079,
  "Ġmarijuana": 4402,
  "ble": 862,
  "ĠWare": 28180,
  "ĠJoined": 15460,
  "ĠTrail": 15635,
  "Ġbrigade": 29146,
  "ĠGreenland": 25543,
  "Ġquo": 14640,
  "Ġmidnight": 14614,
  ".*": 23345,
  "Ġcess": 30761,
  "Ġthree": 989,
  "Ġtwin": 14457,
  "ART": 10595,
  "Ġor": 373,
  "bur": 6044,
  "Ġ192": 26937,
  "olutions": 13817,
  "ighte": 15861,
  "ĠDan": 5237,
  "ĠMarch": 2432,
  "ĠPhase": 22595,
  "Ġrec": 597,
  "Ġink": 17018,
  "Ġread": 1055,
  "ĠOhio": 5767,
  "istical": 20078,
  "EN": 2678,
  "spe": 4591,
  "erted": 8855,
  "Ġunlikely": 6252,
  "Ġsquads": 27749,
  "ishop": 9491,
  "Ġmagazines": 15429,
  "ĠWhen": 1754,
  "Ġabolished": 27430,
  "Ġfeeding": 13113,
  "ĠAnalytics": 28388,
  "Ġsteadfast": 31955,
  "Ġrod": 17469,
  "Ġcaffeine": 23729,
  "ĠLaur": 12036,
  "ĠSony": 8617,
  "Australia": 22138,
  "Ġmedal": 14496,
  "Ġample": 22480,
  "Ġec": 9073,
  "app": 1284,
  "Ġdetermined": 5474,
  "Ġtheories": 9696,
  "Ġtrending": 26567,
  "Ġapplicants": 17338,
  "Ġgly": 16955,
  "Ġstricter": 28835,
  "Ġ220": 21194,
  "ĠMilton": 26250,
  "145": 26324,
  "Change": 25339,
  "Ġintegrity": 10498,
  "Ġants": 25465,
  "osi": 14780,
  "Ġsame": 943,
  "Ġdominance": 15696,
  "].": 5074,
  "ĠJazz": 20770,
  "ĠBox": 10104,
  "Ġitself": 2230,
  "Ġexpectations": 7699,
  "Ġinclined": 17943,
  "Ġconcluding": 27323,
  "Ġmodeled": 25470,
  "Ġfocal": 24906,
  "Stay": 24341,
  "wi": 24730,
  "Ġplane": 6230,
  "ĠIN": 5691,
  "ĠArea": 10560,
  "Ġpage": 2827,
  "Ġlion": 17959,
  "Ġflashes": 27728,
  "itting": 8756,
  "gold": 29187,
  "Ġimprison": 11050,
  "Ġreporters": 5710,
  "ĠNash": 11511,
  "uu": 22536,
  "Ġsourced": 28191,
  "ht": 5413,
  "Ġwhereabouts": 29461,
  "Ġroute": 5841,
  "ĠHassan": 21859,
  "Ġamb": 4432,
  "ornia": 2863,
  "Ġgraves": 27364,
  "ĠHos": 23436,
  "ĠDest": 13331,
  "Ġwartime": 28197,
  "ĠLebanon": 13624,
  "Ġindustries": 9920,
  "Ġreceiving": 6210,
  "hetamine": 25828,
  "âĢ¦âĢĿ": 14370,
  "Ġimproves": 19398,
  "Ġalternative": 5105,
  "Ġsimplest": 22870,
  "Ġemailed": 20234,
  "Ġpregn": 6614,
  "ĠÂ»": 17194,
  "Ġcollision": 16500,
  "61": 8972,
  "Finding": 31902,
  "either": 31890,
  "Ġsides": 4985,
  "Someone": 25268,
  "RB": 24802,
  "Ġteasp": 20965,
  "ok": 444,
  "ĠBass": 21122,
  "itous": 17919,
  "B": 34,
  "DF": 21205,
  "zip": 22429,
  "Ġgravitational": 24490,
  "four": 14028,
  "Ġgrave": 11940,
  "izards": 15224,
  "ĠResponse": 23448,
  "athon": 11821,
  "ĠMon": 3378,
  "ensor": 31298,
  "Ġindic": 2762,
  "Ġvicious": 17623,
  "Ġhires": 30278,
  "Ġfun": 1307,
  "ccording": 2378,
  "ĠBurg": 20235,
  "Ġrespects": 18286,
  "arc": 2402,
  "ports": 3453,
  "Ġthrone": 19681,
  "ĠOsama": 23553,
  "ĠCAN": 18852,
  "Copyright": 14473,
  "Ġpicking": 9836,
  "ateg": 2513,
  "ĠKi": 17382,
  "aliation": 19568,
  "ĠKnights": 19172,
  "ow": 282,
  "ĠEv": 4471,
  "Ġhours": 2229,
  "Ġabout": 471,
  "ĠDispatch": 28556,
  "gets": 10443,
  "Ġaccused": 4359,
  "Ġdop": 22648,
  "ĠDemocrat": 1830,
  "Ġwouldn": 3347,
  "reet": 2561,
  "ĠMobile": 12514,
  "mon": 2713,
  "Ġprivatization": 31325,
  "Ġrapid": 5331,
  "Ġreiter": 15244,
  "Ġhostages": 25960,
  "odo": 22928,
  "ĠCu": 15185,
  "dark": 25160,
  "irie": 27027,
  "deal": 26894,
  "ĠFactory": 23091,
  "ĠUnd": 19818,
  "elcome": 11923,
  "Ġhuge": 2807,
  "igers": 12865,
  "ĠTrad": 27157,
  "Ġreasoning": 14037,
  "lem": 14137,
  "ĠSpeaker": 12066,
  "ĠOcc": 10540,
  "Ġexcept": 3224,
  "riving": 13686,
  "ĠErdogan": 16658,
  "ĠPrice": 9486,
  "ĠIslanders": 25333,
  "ĠSchools": 18321,
  "Ġparticular": 2951,
  "Ġadministrative": 11547,
  "thood": 10725,
  "amine": 10703,
  "fort": 3376,
  "Ġbubble": 12085,
  "ĠResistance": 22821,
  "Create": 21170,
  "Ġideology": 10492,
  "xml": 28076,
  "john": 31012,
  "Ġrend": 10030,
  "Search": 24938,
  "aim": 1246,
  "Th": 756,
  "iment": 2887,
  "Ġpension": 11651,
  "Ġcush": 25009,
  "Best": 12650,
  "Ġblacks": 13796,
  "Jim": 16375,
  "Ġdeck": 7016,
  "Ġhealthcare": 9411,
  "Ġbalancing": 20350,
  "ĠOnly": 6216,
  "MP": 7315,
  "focused": 21902,
  "omb": 2602,
  "Player": 22329,
  "à¥": 22306,
  "Ġopin": 3481,
  "Ġconce": 8640,
  "ĠDigital": 10343,
  "February": 21481,
  "ĠGro": 10193,
  "ĠInstitutes": 29883,
  "75": 4416,
  "+": 11,
  "ĠVict": 6046,
  "Ġpsychological": 10000,
  "Ġchoke": 26331,
  "Ġengines": 10731,
  "USH": 28935,
  "Ġrequesting": 20050,
  "Ġstrengthen": 10762,
  "Ġfals": 24686,
  "Ġimpat": 28589,
  "nerg": 30275,
  "oor": 2830,
  "ĠRiley": 20519,
  "ĠNow": 2744,
  "bread": 29909,
  "ĠUnknown": 23761,
  "Ġlawsuit": 6204,
  "Ġhobby": 18490,
  "CBC": 22276,
  "Ġblueprint": 21924,
  "coll": 21365,
  "Ġpreparing": 9316,
  "ĠFranc": 3836,
  "ĠSoutheast": 17821,
  "ĠCompar": 31674,
  "Ġsurpr": 2555,
  "Ġwanted": 2004,
  "Ġ1968": 13991,
  "ĠEng": 1948,
  "mania": 25937,
  "ĠWashington": 2169,
  "Ġconditional": 26371,
  "ulated": 4602,
  "Ġpasswords": 18899,
  "Ġdownhill": 31514,
  "Ġsqu": 2730,
  "master": 12855,
  "ãĥ¼": 17656,
  "ĠRound": 11974,
  "Ġentit": 7612,
  "ĠGuate": 23380,
  "Ġlied": 17169,
  "Ġexceptional": 14559,
  "Ġsophistic": 10686,
  "ocratic": 6192,
  "flies": 28546,
  "Ġchips": 11108,
  "Ġpictured": 16205,
  "Ġsham": 21705,
  "Ġbeer": 5049,
  "ĠSherman": 20018,
  "Ġshortstop": 30030,
  "Ġscore": 3537,
  "Ġunin": 23970,
  "Ġturbine": 30711,
  "ĠRandall": 28290,
  "ordination": 30070,
  "Ġcoer": 28323,
  "ĠSweden": 9085,
  "girl": 17020,
  "Ġrecre": 9894,
  "Ġcertificates": 22317,
  "Ġnormally": 8154,
  "Ġab": 401,
  "ĠPros": 16506,
  "Ġincentives": 13515,
  "GRE": 31861,
  "osit": 8306,
  "Ġcouch": 18587,
  ".''": 18480,
  "Ġmomentum": 10568,
  "Ġarrangement": 13498,
  "Ġexile": 21544,
  "Ġlighting": 11793,
  "ĠDav": 2193,
  "Ġopposes": 22159,
  "Ġmemo": 9746,
  "Ġmisguided": 24070,
  "Send": 30406,
  "ĠRog": 7261,
  "Journal": 21953,
  "pring": 13689,
  "ĠLang": 15095,
  "Cast": 21697,
  "Ġsubscription": 13779,
  "ĠTrue": 11561,
  "ĠSeth": 17863,
  "ĠOS": 7210,
  "end": 353,
  "ĠSonic": 22553,
  "2009": 13563,
  "ĠCharge": 27018,
  "Ġintellectuals": 25219,
  "ĠCatalan": 29266,
  "inition": 25932,
  "Ġlosing": 5151,
  "Ġoccasional": 10582,
  "Ġreplica": 27060,
  "Ġorganized": 7357,
  "ific": 811,
  "Ġlig": 26073,
  "Dem": 9328,
  "overy": 4663,
  "st": 260,
  "Ġsubset": 23737,
  "Ġdetract": 25661,
  "viron": 2041,
  "Ġdepleted": 30535,
  "Ġhaz": 12080,
  "Ġi": 1769,
  "Ùĩ": 24717,
  "ĠFPS": 28574,
  "Ġcivilizations": 31484,
  "har": 9171,
  "apper": 10784,
  "atus": 10224,
  "Ġrevisit": 26838,
  "ĠZuckerberg": 24275,
  "esome": 6075,
  "ĠBog": 21290,
  "Ġimagine": 5205,
  "Ġexit": 8931,
  "irez": 25237,
  "ĠCaf": 31899,
  "ĠPrison": 17859,
  "ways": 1259,
  "Ġchallenge": 3781,
  "Ġshattered": 22101,
  "ĠMontgomery": 18002,
  "Ġcelebrated": 11778,
  "Ġaided": 24284,
  "ĠGood": 5007,
  "Ġadvent": 11389,
  "ĠScots": 26274,
  "Ġkeywords": 29170,
  "iolet": 22107,
  "ĠHad": 11404,
  "enge": 3313,
  "nick": 22913,
  "otive": 17337,
  "Ġinfo": 9627,
  "Ġoverrun": 29700,
  "ville": 3902,
  "Ġgatherings": 30687,
  "Ġimpressed": 11165,
  "ĠAss": 2261,
  "ĠWindows": 4343,
  "Ġexploits": 22569,
  "ĠBrisbane": 21304,
  "Ġsubstances": 16478,
  "Ġtactic": 15724,
  "Ġ->": 7894,
  "de": 3058,
  "ural": 1436,
  "Ġbecomes": 4303,
  "omething": 8205,
  "ĠBBC": 5667,
  "Ġmerging": 31949,
  "Ġjeans": 20418,
  "Ġnom": 3558,
  "Ġundermining": 23319,
  "Ġcharm": 20725,
  "opard": 13425,
  "Ġvoid": 10726,
  "Brad": 21598,
  "ulk": 15134,
  "Ġsuddenly": 6860,
  "Ġbridges": 17249,
  "Ġsole": 6947,
  "ĠStudies": 10906,
  "Details": 28245,
  "Ġessay": 12076,
  "Ġegreg": 24890,
  "tar": 21679,
  "zen": 4500,
  "ying": 1030,
  "oning": 11210,
  "Dave": 26077,
  "ĠHomer": 26849,
  "Ġsubscribers": 15058,
  "Ġgoverned": 21256,
  "Ġcollectors": 23620,
  "Ġdealers": 14135,
  "Ġfires": 11924,
  "Ġanx": 7092,
  "ĠSaid": 23115,
  "umble": 9695,
  "ĠUT": 19300,
  "Have": 12187,
  "Ġconditions": 3545,
  "Ġpathways": 22475,
  "Ġhugely": 17600,
  "Ġbelie": 1105,
  "Ġinviting": 20287,
  "Ġmarriages": 17718,
  "Ġregister": 8313,
  "Ġthrilling": 27240,
  "5": 21,
  "ĠÅ": 16209,
  "ĠBennett": 14582,
  "ĠHar": 2084,
  "Ġtoken": 12578,
  "Please": 8749,
  "ailing": 11670,
  "ĠBrazil": 6198,
  "ĠStrange": 18689,
  "Ġep": 2403,
  "ĠDeveloper": 24563,
  "main": 12473,
  "ĠBhar": 26969,
  "Ġcorrectness": 24954,
  "aky": 15019,
  "ubl": 1704,
  "Ġinadequ": 16330,
  "Ġ1933": 23767,
  "Ġnoble": 17918,
  "ĠSat": 8076,
  "Ġtheatre": 17452,
  "ĠKevin": 6810,
  "Ġinvestigate": 8264,
  "Ġhust": 27595,
  "Ġcoherent": 21898,
  "Ġdeploying": 23781,
  "ĠMaya": 27194,
  "Ġ2025": 26372,
  "Ġvisually": 20444,
  "Ġhandheld": 28288,
  "Ġinstruct": 5730,
  "Ġflock": 27773,
  "Ġ2004": 5227,
  "elson": 9416,
  "ĠDHS": 23128,
  "ĠSolid": 19407,
  "ĠBull": 7493,
  "andi": 28646,
  "Ġbecause": 710,
  "ĠHigh": 3870,
  "ĠSV": 21511,
  "ucing": 23741,
  "Ġgru": 19064,
  "ĠKingston": 31323,
  "Ġ1930": 12550,
  "tele": 31732,
  "kees": 13658,
  "ĠÐ¾": 19046,
  "vere": 4006,
  "Ġhomeowners": 19161,
  "ĠUruguay": 30674,
  "Ġabortions": 16845,
  "ĠDuncan": 15974,
  "God": 13547,
  "Ġdiscourse": 15530,
  "ogs": 19463,
  "eals": 9526,
  "ids": 2011,
  "83": 9545,
  "ĠSide": 12386,
  "Ġswing": 8782,
  "ebus": 25966,
  "ĠPhotoshop": 25527,
  "Ġharvesting": 29988,
  "Ġpole": 15732,
  "Ġrabb": 17019,
  "Ġviolently": 24485,
  "kell": 16835,
  "Ïĥ": 27602,
  "ĠMem": 5713,
  "Ġminers": 16643,
  "inge": 10719,
  "uit": 3112,
  "R": 50,
  "Ġretailers": 13138,
  "budget": 28714,
  "Written": 24319,
  "ĠErd": 15388,
  "Ġdetr": 19777,
  "ĠTravel": 15374,
  "ORE": 6559,
  "ĠCanada": 2929,
  "Ġfif": 5263,
  "Ġconsultant": 13808,
  "ĠConsidering": 25186,
  "Ġsettlers": 19786,
  "Ġvow": 22422,
  "super": 18297,
  "Ġterrific": 19978,
  "ĠThor": 13250,
  "Ġev": 760,
  "Ġsqueezed": 27776,
  "Ġoffence": 16026,
  "ĠHulu": 27734,
  "Ġbizarre": 11557,
  "Ġcriticize": 19658,
  "Ġcritical": 4140,
  "Ġinstant": 10075,
  "Ġprejudice": 19734,
  "ĠForeign": 7464,
  "aka": 8549,
  "Ġindividuals": 3770,
  "ĠLocke": 31005,
  "Ġsolely": 11131,
  "ether": 6799,
  "Cloud": 18945,
  "ĠEve": 10554,
  "Try": 27167,
  "ammed": 8592,
  "astrous": 15804,
  "Ġfalls": 8918,
  "ettings": 20327,
  "ĠGain": 25329,
  "gre": 27346,
  "Ġinnoc": 7325,
  "Ġ--": 1411,
  "Ġrapp": 23093,
  "Ġtalents": 16632,
  "Ġtreasure": 15193,
  "wolf": 27095,
  "Ġintegral": 17692,
  "Ġbystand": 27820,
  "ifies": 7689,
  "omas": 4472,
  "ĠYOUR": 21259,
  "Ġwreck": 13942,
  "Ġvot": 1163,
  "ĠBris": 20184,
  "rey": 4338,
  "ĠThur": 29601,
  "Ġappetite": 19516,
  "rients": 19477,
  "Ġineff": 12134,
  "Ġshutting": 20636,
  "OUT": 19713,
  "ĠFac": 16335,
  "ĠDoctor": 10534,
  "ru": 560,
  "ĠSouls": 27867,
  "Ġmid": 2722,
  "Ġpronounce": 26470,
  "ĠConservation": 20910,
  "hop": 8846,
  "ff": 453,
  "Ġwide": 2893,
  "ĠMull": 16614,
  "Ġsust": 4986,
  "forest": 30000,
  "cule": 21854,
  "Ġperpetrated": 29681,
  "cript": 6970,
  "Ġprox": 14013,
  "isible": 13775,
  "artz": 21720,
  "Release": 28717,
  "ĠCool": 17052,
  "Ġorchest": 19934,
  "Ġreceiver": 9014,
  "ĠTX": 18391,
  "Ġsummon": 15623,
  "ĠAmericans": 2692,
  "network": 31947,
  "Ġdetainees": 18432,
  "Ġlobbied": 29921,
  "Ġpeer": 11743,
  "ival": 2347,
  "Ġpleas": 20676,
  "Ġworsh": 28618,
  "Ġinward": 31004,
  "Ġholog": 30781,
  "ĠRockefeller": 27255,
  "Govern": 22534,
  "arer": 11783,
  "ĠRecord": 14731,
  "ĠOttoman": 24006,
  "Ġ),": 15014,
  "Ġatom": 23146,
  "Ġpetrol": 26632,
  "Ġappropriate": 5907,
  "Ġbounty": 25248,
  "ifference": 26115,
  "Ġfound": 988,
  "115": 21199,
  "Ġdetermin": 4056,
  "ĠAdditionally": 12016,
  "Ġgenre": 10118,
  "Ġeleg": 15143,
  "Ġaf": 6146,
  "ĠFul": 24154,
  "Ġcommemor": 23525,
  "Ġpopulations": 9141,
  "ĠVal": 3589,
  "TL": 20860,
  "Ġundergoing": 20231,
  "charg": 11490,
  "Ġharness": 19195,
  "Ġexped": 12611,
  "ĠBeau": 28450,
  "Ġinspector": 20984,
  "ker": 7272,
  "ĠSochi": 30650,
  "3": 19,
  "etus": 25963,
  "Ġfocusing": 9242,
  "Ġsomehow": 6977,
  "Ġinvestigators": 8531,
  "Ġliked": 7927,
  "ription": 4158,
  "Most": 6129,
  "idental": 31410,
  "AY": 9959,
  "Pacific": 19792,
  "Ġfog": 20668,
  "ĠCincinnati": 13419,
  "ĠHoldings": 29236,
  "********": 8819,
  "Ġrecruit": 9850,
  "Ġabbre": 30263,
  "Ġmoral": 6026,
  "Ġblat": 17743,
  "Ġruth": 20985,
  "Ġmargin": 9670,
  "ĠRogers": 12818,
  "Ġfantasies": 27973,
  "ping": 11405,
  "Ġmosqu": 19034,
  "Ġbir": 27837,
  "ĠNGO": 17807,
  "ĠTax": 10298,
  "Ġfarms": 13246,
  "iy": 8098,
  "Round": 26114,
  "________________": 7906,
  "belief": 22060,
  "Ġasc": 20076,
  "Ġstatistically": 19911,
  "ĠAviation": 23698,
  "ĠBlog": 12423,
  "Ġlistener": 25842,
  "ĠElder": 21308,
  "ĠDS": 21971,
  "Ġill": 2804,
  "TC": 5031,
  "ĠIntelligence": 8757,
  "ĠSecurity": 4308,
  "Ġsubmit": 9224,
  "Ġstimulate": 24285,
  "ĠViv": 26098,
  "ĠCafe": 26280,
  "Foot": 21502,
  "isch": 21752,
  "ĠMinistry": 8294,
  "Video": 12873,
  "Ġcongrat": 17412,
  "Ġsurprises": 20683,
  "ĠShields": 31953,
  "rom": 352,
  "ĠChoice": 21323,
  "Ġconsume": 14421,
  "atherine": 13967,
  "Personal": 28025,
  "ĠWright": 10558,
  "asonic": 30348,
  "branded": 29159,
  "atellite": 27218,
  "ĠTw": 7244,
  "Ġperceptions": 21056,
  "ĠErnest": 27921,
  "lock": 7287,
  "That": 2097,
  "Ġaffidavit": 22002,
  "Ġparticipation": 9685,
  "ĠWin": 7420,
  "Ġaffiliate": 15052,
  "Ġgarnered": 22348,
  "Ġshroud": 31162,
  "ĠIntercept": 31842,
  "Ġcontain": 4568,
  "Ġballs": 11171,
  "Ġadvising": 25529,
  "ĠComcast": 17070,
  "Ġdied": 3337,
  "Ġdescribes": 7623,
  "igrant": 8226,
  "Ġspace": 2047,
  "Ġrealised": 16432,
  "Ġacquitted": 28744,
  "Ġ2012": 2188,
  "ĠSafari": 27241,
  "ellation": 26233,
  "Ġdisappointment": 15615,
  "Ġappear": 1611,
  "Ġdifferent": 1133,
  "Ġtechnician": 31689,
  "ĠInsurance": 19635,
  "hma": 23567,
  "Ġrevival": 20433,
  "Ġbast": 20217,
  "Ġscript": 5053,
  "Ġacknowledges": 19738,
  "Ġtexture": 15525,
  "Ġmediocre": 25678,
  "Florida": 26181,
  "ilipp": 7812,
  "quist": 25785,
  "ĠTa": 12735,
  "ration": 1269,
  "Ġpremie": 22035,
  "Ġreceipts": 30337,
  "Ġ365": 26304,
  "atell": 6455,
  "Ġclients": 7260,
  "Ġencouragement": 24677,
  "anamo": 23613,
  "ven": 520,
  "Ġheading": 8389,
  "Stan": 28089,
  "Ġmicrophone": 20884,
  "Ġstyle": 4011,
  "Ball": 29960,
  "ads": 7026,
  "ĠVander": 23209,
  "Ġcomposed": 12398,
  "Ġhippocamp": 27635,
  "Ġantagon": 22324,
  "itsu": 22825,
  "fully": 2796,
  "Ġencourages": 16423,
  "ĠRum": 23582,
  "immers": 31457,
  "Ġbay": 15845,
  "2003": 20671,
  "Dou": 18270,
  "ĠMi": 14398,
  "ĠWork": 6042,
  "Ġmajor": 1413,
  "46": 4966,
  "ĠâĢŀ": 27341,
  "ĠObserver": 23571,
  "store": 13009,
  "Spe": 6073,
  "Ġfilters": 18214,
  "Ġcooled": 31587,
  "Ġpeaceful": 10478,
  "RI": 8303,
  ",": 12,
  "?!": 14925,
  "velt": 14999,
  "Ġamino": 28601,
  "present": 22864,
  "ELECT": 29011,
  "work": 1544,
  "Ġbuys": 21437,
  "icio": 31873,
  "Ġpatterns": 7546,
  "ĠEnglish": 3590,
  "fet": 26928,
  "Ġcowork": 28501,
  "ĠAndrea": 20696,
  "ieval": 14555,
  "----------------------------------------------------------------": 25637,
  "fast": 7166,
  "Ġuploaded": 18309,
  "horse": 27741,
  "GM": 12262,
  "Beh": 26460,
  "ĠMist": 22028,
  "Ġthorough": 9275,
  "Ġ>>": 14910,
  "ĠHistorical": 24332,
  "Ġprofession": 7939,
  "utenant": 15072,
  "esters": 5753,
  "Ġalone": 3375,
  "Ġimmun": 18018,
  "Ġfemale": 3957,
  "ĠTs": 10806,
  "Ġalgae": 27967,
  "Ġaccounted": 16700,
  "orc": 29400,
  "Ġrif": 8935,
  "ĠSwe": 24684,
  "Ġdrilling": 14662,
  "olith": 19470,
  "Ġcaptain": 8348,
  "Ġmaple": 30975,
  "Ġdeviation": 29214,
  "Ġinteracting": 22137,
  "Block": 23769,
  "Ġbillionaire": 14490,
  "Ġcontraception": 23949,
  "Ġsymptom": 25805,
  "Ġdownturn": 24438,
  "ĠFletcher": 27344,
  "ĠSr": 18163,
  "Ġskirt": 28341,
  "ĠIA": 26916,
  "ĠBengal": 21138,
  "Ġplanners": 25850,
  "Ġsimpl": 6733,
  "Ġbarrel": 8832,
  "ĠLiquid": 26188,
  "Â©": 15906,
  "ĠSchneider": 21601,
  "ĠNev": 8916,
  "Ġhousehold": 6355,
  "Ġqualify": 12267,
  "outed": 15071,
  "ĠDog": 10283,
  "ĠSalem": 28521,
  "iology": 13851,
  "Ġhey": 16515,
  "illing": 4244,
  "plates": 20359,
  "ĠWeekly": 16484,
  "Ġcommunities": 4408,
  "Ġincreasing": 3129,
  "iety": 1804,
  "ĠHill": 2787,
  "ixty": 19983,
  "Ã©n": 24652,
  "Ġmeter": 17616,
  "Total": 18088,
  "Ġmethod": 2789,
  "ĠSeah": 14061,
  "ĠMORE": 9606,
  "Ġconcerted": 31360,
  "Ġ1953": 21978,
  "Ġintrigued": 28816,
  "Ġdrowning": 29276,
  "Ġprint": 3998,
  "xt": 495,
  "ĠWii": 15199,
  "ĠREUTERS": 13118,
  "ander": 4292,
  "Ġbell": 14630,
  "Ġargue": 5966,
  "ufact": 3628,
  "],": 5807,
  "REE": 15543,
  "Ġcomplaint": 7384,
  "ä¸": 14138,
  "ĠMalik": 28050,
  "onz": 10261,
  "ĠSark": 24107,
  "ĠFol": 25756,
  "Ġabundance": 18510,
  "Ġimpact": 2588,
  "Ġpuzzles": 22974,
  "ĠBase": 9262,
  "apped": 4830,
  "\",": 2824,
  "ĠNetworks": 25431,
  "acher": 9852,
  "Ġaster": 15274,
  "Ġprolonged": 19796,
  "Ġbases": 11067,
  "Ġrelentlessly": 30689,
  "ĠNg": 29373,
  "Ġcoffin": 28899,
  "Ġkilled": 2668,
  "Ġass": 835,
  "sterdam": 20468,
  "Ġmedication": 14172,
  "ĠOlive": 31544,
  "ĠFall": 9461,
  "Ġadequ": 10280,
  "Ġcohort": 23905,
  "Ġpits": 26546,
  "dit": 8623,
  "Ġreceivers": 15524,
  "Ġadmitting": 18934,
  "ranch": 22702,
  "Ġmurd": 7229,
  "atinum": 19865,
  "Ġ(Â£": 17160,
  "prote": 14098,
  "Ġkilograms": 30649,
  "Ġme": 466,
  "ĠBelgian": 17215,
  "Ġ199": 1595,
  "USD": 30972,
  "ĠOverwatch": 30371,
  "retched": 29393,
  "awn": 5016,
  "bye": 16546,
  "Rus": 28982,
  "ĠBron": 8962,
  "ĠSteven": 7235,
  "overed": 2468,
  "Ġabund": 11777,
  "Ġbags": 11249,
  "Ġfinite": 25428,
  "Ġcompensate": 20440,
  "ĠCentre": 7992,
  "ĠNigeria": 16012,
  "ĠKiller": 26600,
  "thouse": 19665,
  "Ġshall": 5314,
  "angu": 2293,
  "Ġminimize": 17539,
  "ĠLal": 29490,
  "mu": 30503,
  "olan": 14235,
  "Ġreinfor": 14368,
  "brance": 31184,
  "Ġsmile": 9625,
  "Ġwaterfront": 31101,
  "Ġdistricts": 10628,
  "ĠYam": 18041,
  "ĠTVs": 27326,
  "ati": 6730,
  "Ġmatrix": 18953,
  "ials": 10437,
  "JUST": 21804,
  "Ġphot": 2640,
  "Ġrefusing": 12718,
  "aura": 30969,
  "ortunate": 12509,
  "erness": 17633,
  "ĠKaiser": 29320,
  "Looking": 14287,
  "Under": 8307,
  "getown": 24009,
  "Ġpartly": 10064,
  "Ġscrutin": 24800,
  "Ġunreal": 20197,
  "Ġsensor": 13081,
  "Ġhiking": 23928,
  "ĠMurray": 9922,
  "Ġcourse": 1700,
  "ĠMLS": 9902,
  "Ġpotato": 20414,
  "mil": 30401,
  "Ġpermanently": 14478,
  "Ġclocks": 28708,
  "Ġwizard": 23940,
  "Left": 22364,
  "ĠAlien": 20940,
  "Ġ1080": 19593,
  "resh": 3743,
  "yy": 31411,
  "Ah": 13114,
  "iter": 4825,
  "Ġremnants": 27545,
  "ãĥ¼ãĥ": 29604,
  "ĠAhmed": 16340,
  "Ġmove": 1296,
  "Ġceasefire": 21525,
  "ĠFut": 25601,
  "ĠBarcl": 24918,
  "ipse": 16140,
  "Ġwhopping": 22616,
  "Ġstock": 4668,
  "Ġterrified": 20140,
  "Ġgimm": 27644,
  "Ġaura": 29591,
  "Ġfraction": 13064,
  "Â": 125,
  "kers": 16706,
  "named": 11700,
  "Ġmembrane": 26907,
  "Ġat": 327,
  "ĠExperience": 20166,
  "ĠYard": 26997,
  "Ġcompressed": 27531,
  "uties": 8246,
  "onde": 16450,
  "Ġprocurement": 28211,
  "ĠJav": 15018,
  "ĠBorg": 31169,
  "Ġpenetration": 23586,
  "idges": 14401,
  "Ġrocket": 9124,
  "ĠFBI": 4524,
  "Ġconversation": 4788,
  "download": 27720,
  "Ġsolve": 7512,
  "Ġdepicts": 24636,
  "hetti": 31621,
  "Ġcarb": 17436,
  "Ġdressing": 17098,
  "Ġflav": 10917,
  "Ġhikes": 26237,
  "Michael": 11828,
  "rested": 28363,
  "iar": 11224,
  "Ġscreaming": 13513,
  "Ġanthem": 18937,
  "ttes": 12061,
  "wegian": 17351,
  "Ġbook": 1388,
  "Ġpositions": 5433,
  "otal": 6490,
  "Ġliver": 16238,
  "ĠME": 15872,
  "ĠAdmir": 21595,
  "Ġleaders": 2165,
  "Ġpredator": 26847,
  "Ġconcept": 3422,
  "ĠWikiLeaks": 13146,
  "acing": 4058,
  "resa": 13594,
  "ĠDor": 12250,
  "ĠPrevious": 23716,
  "Would": 17942,
  "cean": 5410,
  "ANCE": 29701,
  "cz": 24477,
  "Ġsoda": 20389,
  "Web": 18111,
  "ĠPalace": 14603,
  "Ġinqu": 7036,
  "Ġkg": 16219,
  "uter": 10914,
  "Ġ135": 23443,
  "Ġprints": 21812,
  "Ġgrateful": 12567,
  "ĠProp": 9354,
  "Ġmedieval": 17304,
  "ĠHas": 7766,
  "rast": 3153,
  "Ġrepresentations": 25231,
  "Ġshape": 5490,
  "ĠFighter": 19560,
  "Ġ):": 23471,
  "Ġreport": 853,
  "åĲ": 26771,
  "ĠHolland": 13292,
  "Ġmodifying": 31930,
  "Ġbathrooms": 26511,
  "ĠRaptors": 25916,
  "Ġstory": 1410,
  "Ġtyranny": 25954,
  "Ġconstitution": 10277,
  "Ġrespons": 2297,
  "ĠJulian": 15270,
  "ĠKro": 27360,
  "lad": 8172,
  "Ġyes": 3600,
  "Ġtoe": 20659,
  "CD": 10486,
  "Ġvocabulary": 23276,
  "ĠBurn": 10373,
  "Cover": 28170,
  "Ġobey": 24945,
  "ĠChess": 31635,
  "Ġbicy": 11477,
  "ĠEb": 11090,
  "oth": 823,
  "Ġupcoming": 6617,
  "ĠRemember": 12391,
  "Ġbloggers": 22450,
  "Ġrule": 3801,
  "Ġvirtually": 8656,
  "Ġimpuls": 23382,
  "Ġprinted": 10716,
  "Ġfoe": 27722,
  "Ġsemin": 15568,
  "Ġdesignated": 11823,
  "Ġmo": 8086,
  "Ġgenerates": 17651,
  "ĠFeb": 2784,
  "Ġmodular": 23794,
  "ĠWe": 726,
  "Ġcostume": 15902,
  "Ġ35": 4375,
  "ÏĤ": 24972,
  "orp": 19229,
  "oved": 2758,
  "Coun": 24963,
  "Ġstretches": 20603,
  "Ġpartisans": 30870,
  "Ġbattery": 6751,
  "ipal": 23790,
  "Ġlag": 19793,
  "bnb": 26574,
  "Ġnor": 4577,
  "pically": 18149,
  "28": 3746,
  "ĠNarendra": 22149,
  "Ġ1978": 14397,
  "ĠBaltic": 26982,
  "Ġcracked": 19980,
  "Ġsignings": 29761,
  "Ġname": 1576,
  "iser": 5122,
  "cro": 20644,
  "Ġcared": 18531,
  "ĠGreene": 24248,
  "ĠRh": 11565,
  "Ġgateway": 23749,
  "tes": 7641,
  "jee": 28462,
  "ĠVII": 24323,
  "Ġcharged": 4497,
  "Ġdirector": 2708,
  "Ġbra": 8096,
  "ĠSpicer": 20645,
  "Ġpp": 15439,
  "ĠHave": 9332,
  "ĠShooting": 31931,
  "Ġoperations": 4138,
  "Ġdevelops": 20379,
  "fashion": 22287,
  "Ġordinance": 18327,
  "4": 20,
  "Ġprepare": 8115,
  "ĠThinking": 31294,
  "ĠConfeder": 14246,
  "Ġapple": 17954,
  "Ġ1974": 15032,
  "Ġcocktail": 21948,
  "Ġbanning": 15746,
  "ĠStewart": 10931,
  "Ġresponses": 8828,
  "Ġcoinc": 9656,
  "ullah": 26454,
  "ĠLac": 22939,
  "Ġblasted": 21207,
  "Ġorganisms": 18604,
  "Ġproportional": 27054,
  "Lou": 20811,
  "rett": 7104,
  "Ġtouted": 21016,
  "Ġliabilities": 30048,
  "rit": 667,
  "ÃĥÃĤÃĥÃĤÃĥÃĤÃĥÃĤ": 11001,
  "Ġmindfulness": 30731,
  "Editor": 17330,
  "Ġperipher": 17795,
  "SH": 15760,
  "ĠPortug": 10574,
  "pp": 335,
  "uton": 25413,
  "Item": 21749,
  "Ġlay": 3258,
  "ĠPav": 22860,
  "nas": 22651,
  "Ġpap": 19428,
  "Season": 21272,
  "mes": 6247,
  "ÙĨ": 17559,
  "Ġscrewed": 25692,
  "Ġorgans": 16797,
  "appointed": 26957,
  "Ġse": 330,
  "ĠTit": 6850,
  "Ġmapping": 17119,
  "those": 23188,
  "gr": 848,
  "zza": 29111,
  "Ġpersecution": 19551,
  "affe": 13558,
  "ourgeois": 18932,
  "Ġcontinu": 11100,
  "ĠAnfield": 31908,
  "Ġ90": 4427,
  "ĠNon": 10518,
  "cle": 2981,
  "Ġcleric": 31560,
  "uctions": 26862,
  "hens": 4932,
  "ĠTwins": 26708,
  "Ġfier": 22727,
  "ĠHistory": 8591,
  "Ġquantify": 31577,
  "Ġdirt": 13500,
  "Ġtweaks": 24996,
  "Â±": 27121,
  "Ġundergraduate": 22853,
  "ĠAgricult": 15556,
  "ĠBarb": 10490,
  "Ġburd": 8118,
  "Ġmoderate": 10276,
  ".\"[": 7280,
  "Ġdeer": 19757,
  "shire": 9012,
  "CS": 7098,
  "Ġdeaths": 6239,
  "ĠCarolina": 5133,
  "ĠHelen": 21298,
  "Ġpossible": 1715,
  "an": 229,
  "Ġruns": 4157,
  "Ġchair": 4254,
  "Ġgut": 11437,
  "Ġaddressing": 11634,
  "l": 76,
  "ange": 839,
  "Ġsoldier": 10397,
  "ĠPul": 18750,
  "Ġmeas": 2133,
  "Ġwarmer": 20464,
  "ARP": 29004,
  "ĠCann": 17837,
  "Ġearnest": 22418,
  "Ġtree": 6005,
  "Ġmercy": 19691,
  "Ġquantity": 15829,
  "Ġchances": 7404,
  "ĠHat": 14175,
  "Ġhacking": 12297,
  "ĠSunshine": 31858,
  "Ġextortion": 31082,
  "Lord": 26055,
  "Ġwithout": 1231,
  "ĠResidents": 31575,
  "Ġcoconut": 19828,
  "Ġmyst": 17370,
  "ĠHeath": 21353,
  "ĠCinema": 27771,
  "through": 9162,
  "Ġsubsidies": 12480,
  "ĠGran": 17449,
  "ĠElite": 20304,
  "Ġfilming": 13806,
  "Ġpound": 14671,
  "bert": 4323,
  "Ġplaint": 13633,
  "Ġcom": 344,
  "Ġextinct": 23402,
  "Ġshipment": 29709,
  "Ġconquest": 27019,
  "ĠAwesome": 31102,
  "ĠComments": 23451,
  "Ġtroubling": 16239,
  "Ġphrases": 19496,
  "Ġenforcing": 22426,
  "Ġproductive": 10950,
  "Ġplay": 625,
  "Ġmidfielder": 13510,
  "ilight": 17890,
  "Ġtrying": 1854,
  "Ġtaller": 26598,
  "ĠAlmost": 15731,
  "Ġsurvivor": 21610,
  "ĠFull": 8156,
  "ĠWE": 17518,
  "Ġatheist": 18894,
  "Ġinability": 14677,
  "ĠThai": 16771,
  "Ġbody": 2046,
  "Ġprogressives": 22136,
  "Ġfuel": 4667,
  "common": 19166,
  "ajor": 1308,
  "Ġgas": 3242,
  "load": 2821,
  "Ġdecent": 7044,
  "Ġdoor": 3737,
  "Ġ73": 12711,
  "Ġdivine": 15773,
  "acked": 7288,
  "Ġ\"...": 30950,
  "Ġpayroll": 17802,
  "ah": 957,
  "ĠHugo": 22161,
  "ĠVik": 9744,
  "Ġinmate": 23685,
  "ĠDollar": 26778,
  "Ġmouth": 6583,
  "ĠBed": 15149,
  "Ġalliances": 24696,
  "Ġabsurd": 11280,
  "agnetic": 24399,
  "ihil": 22659,
  "Ġbeam": 18773,
  "ours": 5382,
  "ĠSinger": 24720,
  "lim": 2209,
  "UB": 22867,
  "ĠController": 29923,
  "asting": 9506,
  "they": 9202,
  "ecause": 3021,
  "Ġapplic": 2500,
  "Ġlarg": 2258,
  "uns": 14027,
  "Ġbeaches": 21222,
  "liter": 16210,
  "Ġether": 30985,
  "mala": 25603,
  "Ġclassic": 6331,
  "ĠMoving": 28061,
  "ĠDu": 10999,
  "Ġwalking": 5901,
  "ĠThursday": 2868,
  "Ġobsess": 21462,
  "Ġcompl": 2136,
  "Ġtrademark": 16032,
  "iliar": 4484,
  "Ġtalked": 5631,
  "Ġidentities": 15318,
  "ãģŁ": 20174,
  "Ġescalation": 24024,
  "ĠSample": 28742,
  "irs": 11537,
  "Ġresources": 3839,
  "Ġsubstantially": 14247,
  "Ġprolong": 16488,
  "Ġmeaningful": 9661,
  "Young": 18985,
  "Ġforfeiture": 31228,
  "ĠConcept": 27149,
  "Ġlengths": 19943,
  "Ġslot": 10817,
  "Ġmonth": 1069,
  "ĠMaggie": 30684,
  "Ġgained": 7815,
  "Ġvariable": 9982,
  "Ġconfirm": 5943,
  "Ġtheorists": 27058,
  "Ġastronaut": 15073,
  "interested": 30133,
  "matched": 30773,
  "gram": 1209,
  "Ġcubic": 24201,
  "Having": 12853,
  "riend": 1256,
  "Ġgraphics": 9962,
  "ĠPaula": 31759,
  "Congress": 19606,
  "Ġped": 6958,
  "Ġtear": 10896,
  "Ġverbal": 17228,
  "ippi": 11014,
  "ĠCitizen": 19969,
  "azar": 19048,
  "ĠTok": 9804,
  "priv": 16102,
  "ghazi": 16826,
  "atic": 1993,
  "Ġsuccessor": 14653,
  "black": 13999,
  "Ġinstit": 5280,
  "Ġhy": 2534,
  "Earth": 23581,
  "Ġrad": 2272,
  "ĠRB": 18840,
  "orders": 6034,
  "Ġreminder": 13023,
  "visors": 23888,
  "ĠPf": 30920,
  "Ġdism": 13646,
  "ĠShort": 10756,
  "ĠDean": 11624,
  "urring": 14412,
  "Ġliar": 28418,
  "oche": 27618,
  "word": 6043,
  "Ġfindings": 5866,
  "ĠRaw": 15786,
  "Ġimplements": 27979,
  "Ġcigarette": 17605,
  "Ġhighway": 12515,
  "116": 25583,
  "asis": 20520,
  "Ġsources": 3898,
  "Ġha": 328,
  "ĠWester": 31765,
  "Ġmud": 17116,
  "liminary": 12331,
  "call": 16083,
  "Ġchronic": 10709,
  "Äĥ": 9359,
  "Ġunlock": 15650,
  "ĠReds": 11595,
  "ĠCyprus": 23645,
  "Ġcrisp": 23362,
  "Ġcaller": 24864,
  "rave": 19711,
  "ology": 1343,
  "Ġne": 358,
  "original": 15954,
  "ception": 4700,
  "temporary": 26682,
  "ĠStack": 26317,
  "ĠTrophy": 21026,
  "iti": 8117,
  "ĠGaw": 27039,
  "Ġcommunicate": 10301,
  "Ġhook": 8208,
  "Ġphen": 6174,
  "ĠBrussels": 12694,
  "Ġoutput": 6185,
  "Ġinc": 522,
  "Ġexist": 2100,
  "Ġshortcomings": 25992,
  "Ġhumor": 12929,
  "ĠTelescope": 29098,
  "Ġbench": 7069,
  "Ġdominates": 31374,
  "Ġblunt": 17268,
  "Ġadvertisement": 12269,
  "ĠKra": 25288,
  "Ġstret": 5460,
  "isi": 18647,
  "Ġseldom": 25010,
  "ĠKrish": 30007,
  "row": 770,
  "ĠMor": 3297,
  "Ġrests": 23417,
  "Ġstate": 813,
  "ĠObject": 15099,
  "ĠEvent": 10201,
  "Ġsurpassed": 24801,
  "Ġcracks": 21575,
  "Ġtemples": 26504,
  "Take": 12130,
  "aye": 29866,
  "ĠRac": 26464,
  "ilogy": 18523,
  "ocy": 16373,
  "Ġproposes": 22146,
  "Ġplayful": 31766,
  "ĠJagu": 19088,
  "Ġkills": 13619,
  "Ex": 4149,
  "ate": 325,
  "Ġenhancements": 28978,
  "Ġlegitimately": 30828,
  "inst": 10682,
  "imens": 12584,
  "ament": 1817,
  "ĠVienna": 20703,
  "Ġunderstand": 1718,
  "ĠPhilippine": 23355,
  "ĠBrat": 31076,
  "Ġcontinuity": 22819,
  "Ġred": 2358,
  "Ġdriver": 4576,
  "ĠUCLA": 17682,
  "ulations": 5859,
  "Ġcaring": 16931,
  "Ġaggrav": 18397,
  "Ġ2000": 4884,
  "Ġtones": 24470,
  "Ġfive": 1647,
  "Ġsaint": 31523,
  "ĠMeat": 28057,
  "than": 12802,
  "ĠPurd": 26094,
  "order": 2812,
  "ĠTeam": 4974,
  "ĠInterest": 13371,
  "lear": 2471,
  "bling": 20408,
  "ĠMonument": 29793,
  "Ġdonor": 15827,
  "Ġnorthern": 6802,
  "ĠFuel": 30154,
  "gg": 967,
  "uary": 2508,
  "Ġchildhood": 9276,
  "iffe": 19340,
  "MD": 16611,
  "Ġpriests": 18298,
  "Ġexotic": 19656,
  "ateur": 13675,
  "ĠMike": 4267,
  "Ġsubmissions": 22288,
  "ĠIndeed": 8790,
  "Ġinstru": 6573,
  "Ġnoted": 3764,
  "ould": 372,
  "data": 11701,
  "Ġemotional": 6421,
  "icial": 4185,
  "ĠSerbian": 30988,
  "Ġriot": 13681,
  "breaker": 27486,
  "ĠShares": 25336,
  "ĠSNP": 19863,
  "ongo": 22604,
  "Ġrenegoti": 30010,
  "Met": 13433,
  "als": 826,
  "ĠHey": 16200,
  "ashion": 5484,
  "Ġmultinational": 21992,
  "ĠDemand": 31684,
  "Ġdysfunction": 18306,
  "unt": 2775,
  "Ġaccountable": 13115,
  "Ġcler": 10128,
  "ĠHO": 29845,
  "ĠHR": 15481,
  "Ġhttps": 5571,
  "Right": 10912,
  "ĠSaf": 7783,
  "Ġcars": 4111,
  "Ġuseful": 4790,
  "Hundreds": 28358,
  "15": 1892,
  "eworthy": 22960,
  "ĠAbb": 8970,
  "Ġbatt": 6478,
  "Ġassail": 26153,
  "Ġlook": 755,
  "ĠAngels": 20008,
  "ax": 920,
  "enta": 30576,
  "yrr": 24436,
  "Ġproblems": 2560,
  "OLD": 23214,
  "rottle": 28726,
  "Ġsurroundings": 21476,
  "Ġdish": 9749,
  "Ġcryptocur": 12878,
  "maid": 23520,
  "Ġpsychiat": 11807,
  "Ġaspect": 4612,
  "including": 8421,
  "ies": 397,
  "hours": 30965,
  "Ġresil": 16713,
  "Ep": 19019,
  "ogenic": 16994,
  "Ġreveal": 2894,
  "Ġcrews": 15549,
  "ÃĥÃĤÃĥÃĤÃĥÃĤÃĥÃĤÃĥÃĤÃĥÃĤÃĥÃĤÃĥÃĤÃĥÃĤÃĥÃĤÃĥÃĤÃĥÃĤÃĥÃĤÃĥÃĤÃĥÃĤÃĥÃĤ": 26161,
  "Ġprivile": 7455,
  "Ġadm": 6432,
  "ouk": 31912,
  "discipl": 29953,
  "GE": 8532,
  "Ġfly": 5802,
  "Ġlining": 19397,
  "Ġrecalled": 10438,
  "ĠMatthews": 18050,
  "Ġvac": 4050,
  "Ġpint": 28778,
  "arge": 1162,
  "rikes": 16742,
  "Ġlistening": 8080,
  "Ġhumiliating": 31790,
  "Ġstudents": 2199,
  "apest": 30851,
  "cop": 26934,
  "ortium": 20549,
  "Ġdirective": 20588,
  "istence": 22445,
  "COMMENT": 30746,
  "Ġ330": 29918,
  "Ġreplace": 4230,
  "oslav": 22981,
  "awa": 6590,
  "Ġlaptops": 21564,
  "Ġmod": 1013,
  "Ġcort": 21707,
  "ĠRena": 24891,
  "OPA": 31829,
  "Ġunlocked": 22097,
  "poon": 28265,
  "Ġprodu": 927,
  "Ġlocate": 17785,
  "Ġmushroom": 27345,
  "Ġsurfing": 30226,
  "Ġ126": 29121,
  "ĠChristianity": 12002,
  "ĠLaud": 27563,
  "ĠKor": 15227,
  "ĠStay": 19200,
  "Ġartifact": 29260,
  "Ġventure": 10984,
  "os": 376,
  "raising": 27129,
  "hem": 4592,
  "Ġmanned": 28851,
  "sin": 30352,
  "Ġsurplus": 16813,
  "izon": 7759,
  "Ġarrays": 27588,
  "Ġtw": 608,
  "Ġdivid": 13702,
  "Ġwished": 17311,
  "Ġvel": 12981,
  "Ġfreshman": 14509,
  "Virgin": 30834,
  "izzard": 16588,
  "ina": 1298,
  "Ġengaged": 7457,
  "cont": 4139,
  "Ġenvironment": 2544,
  "Ġorchestra": 31081,
  "19": 1547,
  "Ġquart": 29857,
  "Ġhomework": 23515,
  "ĠContact": 19693,
  "Ġambiguity": 29929,
  "Ġbarriers": 12823,
  "ĠBlasio": 26286,
  "lang": 22975,
  "ĠAm": 1855,
  "event": 20143,
  "ĠApp": 2195,
  "Cre": 17131,
  "ĠOfficials": 22272,
  "respond": 5723,
  "Ġnavigation": 15909,
  "ĠMush": 28595,
  "ĠInter": 4906,
  "Ġsidel": 26789,
  "ĠSadd": 17703,
  "osite": 5637,
  "led": 968,
  "ĠLovecraft": 31723,
  "Ġpens": 28044,
  "Ġpassions": 30139,
  "Ġlearns": 22033,
  "Ġyield": 7857,
  "Ġbeaut": 3775,
  "Ġpitched": 17287,
  "Ġevidence": 2275,
  "Well": 5675,
  "ĠFresh": 21195,
  "Ġrelying": 15451,
  "Ġrevoked": 28932,
  "Ġneurological": 28127,
  "Ġago": 1844,
  "Ġcanned": 30364,
  "Ġoversees": 24427,
  "Ġsus": 2093,
  "Ġdismiss": 5685,
  "Ġunemployed": 16348,
  "vor": 16159,
  "Ġdelay": 5874,
  "ĠFraser": 23583,
  "Ġincarn": 22447,
  "Ġsurge": 11488,
  "Ġtradem": 13772,
  "oti": 3796,
  "ĠWorld": 2065,
  "Obviously": 16309,
  "Ġendorsed": 13614,
  "Ġgel": 21775,
  "Ġexempl": 19274,
  "Ġinvest": 1138,
  "Ġworthless": 27199,
  "Ġlibrary": 6307,
  "ĠPlaying": 24721,
  "Ġfucking": 11436,
  "Ġscripted": 30254,
  "ĠNec": 27715,
  "ABC": 20988,
  "comm": 14311,
  "ĠEmployees": 28588,
  "ilateral": 12666,
  "Ġregional": 6544,
  "ights": 2921,
  "Ġamazed": 23265,
  "ahoo": 11013,
  "ĠCod": 26640,
  "ĠLeone": 26490,
  "y": 89,
  "Ġmetrics": 17787,
  "Ġdun": 20825,
  "Ġjournalist": 7849,
  "Ġgotta": 17011,
  "flation": 28702,
  "ĠHardy": 24536,
  "ĠGuards": 30253,
  "Ġcycles": 15483,
  "open": 9603,
  "Ġverses": 25502,
  "ĠBoulevard": 19404,
  "Ġintermedi": 15795,
  "Ġreaction": 5696,
  "Ġnicht": 29534,
  "Nor": 19456,
  "Ġtweet": 4910,
  "Ĺ": 202,
  "Ġvolumes": 14289,
  "ĠAlexa": 28847,
  "Ġimplant": 29590,
  "syn": 30126,
  "Ġhandful": 8383,
  "LAY": 22967,
  "Ġremed": 20719,
  "Ġcrucial": 7305,
  "jan": 12192,
  "ĠVince": 20130,
  ":\\": 24815,
  "Ã¶": 6325,
  "ĠBE": 12375,
  "ovich": 15754,
  "Ġcoffee": 6782,
  "ĠBond": 13811,
  "ĠRobot": 25864,
  "Ġestate": 7323,
  "emen": 7407,
  "ĠDum": 28896,
  "Ġrelatives": 11729,
  "ĠCasey": 17910,
  "Ġ1": 340,
  "ed": 233,
  "Ġ...": 3162,
  "frame": 15200,
  "ĠTechnologies": 21244,
  "Ġguessed": 24440,
  "Ġforge": 27110,
  "Ġcontribut": 3605,
  "ouston": 5995,
  "uff": 1705,
  "ĠCorpor": 9110,
  "Ġdefinitely": 4496,
  "Ġgame": 894,
  "og": 482,
  "orship": 9460,
  "Ġreinvent": 28117,
  "Ġchaotic": 20346,
  "Ġ1941": 20150,
  "spons": 16289,
  "ĠGroup": 4797,
  "Ġrefreshing": 21180,
  "ĠUk": 4409,
  "Ġreprint": 21368,
  "Ġhotels": 16042,
  "ĠCable": 19429,
  "Ġcompe": 8927,
  "imming": 26784,
  "ĠRev": 5970,
  "Ġpeculiar": 21996,
  "ĠHS": 17482,
  "ado": 3928,
  "paid": 17004,
  "idav": 19541,
  "ĠAqu": 14161,
  "ĠOfficers": 22596,
  "ĠWord": 10584,
  "çļĦ": 26354,
  "Ġverdict": 13111,
  "pers": 17925,
  "ulous": 6459,
  "ĠCorp": 11262,
  "ĠIrish": 7120,
  "thy": 21495,
  "ĠDestiny": 26965,
  "jriwal": 30446,
  "ĠNI": 24251,
  "ĠBrew": 8413,
  "hof": 29148,
  "actory": 12238,
  "agonal": 27586,
  "lves": 28021,
  "Ġsadd": 16712,
  "Ġblocked": 9071,
  "Ġclaims": 3186,
  "is": 228,
  "Ġconvince": 9983,
  "Ġindicates": 9666,
  "rica": 26568,
  "Ġsidewalk": 20609,
  "Ġprocess": 1351,
  "umpy": 31381,
  "Ġcovers": 8564,
  "ĠSome": 2731,
  "ica": 3979,
  "Ġ1975": 14159,
  "Ġadopt": 10352,
  "ĠMLB": 14823,
  "ĠAnonymous": 18116,
  "Ġstandalone": 25111,
  "Ġundis": 20123,
  "Ġpivot": 28791,
  "Ġrevealing": 12168,
  "gary": 12129,
  "requ": 11538,
  "ĠGOOD": 16773,
  "ĠXavier": 28621,
  "ĠTerms": 30579,
  "Ġmeasure": 3790,
  "Ġ1954": 21833,
  "ĠInvalid": 14689,
  "president": 16874,
  "Ġasleep": 17379,
  "aping": 8861,
  "DA": 4807,
  "Ġlectures": 23313,
  "fix": 17214,
  "ahl": 13688,
  "Ġ?": 9716,
  "Ġbrut": 7632,
  "ĠCast": 7164,
  "Ġisn": 1877,
  "Ġdebug": 29207,
  "Ġ19": 648,
  "illy": 6025,
  "ĠKobe": 25696,
  "Ġtheory": 4226,
  "Ġcertainty": 17275,
  "Ġcoach": 3041,
  "Ġwasting": 22430,
  "Ġmatched": 14075,
  "Ġtremendously": 29254,
  "Ġswap": 16761,
  "Ġloyal": 8081,
  "Ġrest": 1289,
  "Ġnephew": 22942,
  "Ġquiet": 5749,
  "Tech": 20144,
  "EA": 7549,
  "Ġkicks": 15424,
  "isine": 24231,
  "Ġflooding": 14946,
  "ĠRaleigh": 29057,
  "Ġthrowing": 8649,
  "Ġ74": 12700,
  "Advertisements": 11859,
  "Ġautomation": 18344,
  "Ġcases": 2626,
  "Ġheck": 19394,
  "ĠKar": 9254,
  "Ġconcerned": 4594,
  "idel": 5708,
  "olly": 4732,
  "Ġseven": 3133,
  "ulators": 21625,
  "te": 355,
  "RO": 11857,
  "Ġdeparture": 10995,
  "Ġairing": 23363,
  "Ġrealism": 26154,
  "ĠBurr": 31532,
  "Ġjazz": 17540,
  "Sat": 24093,
  "Ġbands": 10521,
  "orting": 15620,
  "Ġstorage": 6228,
  "Ġtaboo": 30156,
  "ĠDes": 3331,
  "Ġdevelopers": 5113,
  "Ġfab": 8311,
  "Ġdesire": 6064,
  "Ġcaucuses": 28329,
  "Ġremove": 5417,
  "Ġhappening": 4994,
  "Ġdebates": 11832,
  "Ġtoughest": 23100,
  "Ġsuburbs": 16529,
  "Ġforests": 15054,
  ".ÂĶ": 27465,
  "ĠConsole": 30980,
  "Þ": 153,
  "ine": 468,
  "generated": 28620,
  "Ġanother": 1128,
  "CC": 4231,
  "dom": 3856,
  "Ġinauguration": 18705,
  "Ġoption": 3500,
  "ĠRequest": 31058,
  "Ġerased": 30910,
  "Ġdocuments": 4385,
  "Ġmods": 23943,
  "Ġspreadsheet": 30545,
  "ts": 840,
  "ĠSter": 18098,
  "const": 9748,
  "Ġrele": 1149,
  "ĠOslo": 30977,
  "cn": 31571,
  "Ġurges": 23167,
  "ĠDouble": 15221,
  "ĠDespite": 7068,
  "Ġapologies": 30247,
  "Ġprescription": 14382,
  "Ġpardon": 26538,
  "Ġconsultation": 17542,
  "Tell": 24583,
  "fo": 29822,
  "idi": 17529,
  "Ġactivists": 5971,
  "Ġ2011": 2543,
  "ĠCrist": 20704,
  "Ġdrew": 8739,
  "ĠImpact": 19358,
  "ĠExample": 27490,
  "Ġphysics": 10714,
  "lier": 2079,
  "?'": 12273,
  "ĠBaker": 12166,
  "omo": 15074,
  "ĠChamber": 14611,
  "Ġcre": 1079,
  "ĠStanton": 29957,
  "Ġtwisted": 19537,
  "Ġ07": 16665,
  "ĠIndian": 3445,
  "Ġfinancially": 15135,
  "Ġvariability": 24723,
  "Ġhistory": 1845,
  "HR": 20132,
  "Ġscaled": 24257,
  "uk": 3001,
  "Ġgrenade": 27135,
  "Load": 22577,
  "Ġconfirmed": 4152,
  "Ġburial": 21416,
  "Ġtrivial": 18521,
  "above": 28413,
  "lasses": 30755,
  "ĠMarxism": 28151,
  "etti": 20904,
  "Ġsuperintendent": 28874,
  "Ġprotocols": 18642,
  "ĠClippers": 26105,
  "ĠSp": 1484,
  "Ġsentences": 12388,
  "Ġpicks": 9457,
  "ĠCurry": 18386,
  "approved": 26257,
  "zb": 12535,
  "itu": 31704,
  "ĠNets": 25475,
  "Ġlogos": 28163,
  "Ġregistering": 26804,
  "pert": 16269,
  "gin": 1581,
  "Bay": 14286,
  "Ice": 29773,
  "Ġamateur": 16279,
  "Ġindictment": 16625,
  "Ġfaulty": 28181,
  "Ġste": 2904,
  "ĠSpurs": 14637,
  "ĠFriday": 2632,
  "Ġdi": 2234,
  "beat": 11596,
  "ĠEh": 29123,
  "ending": 1455,
  "play": 1955,
  "Ġranked": 8457,
  "uggish": 31209,
  "ĠâĤ¬": 8535,
  "zer": 5731,
  "ĠTransport": 19647,
  "Ġblades": 25234,
  "Ġanimals": 4556,
  "-$": 21891,
  "ÑģÐº": 27980,
  "Hello": 16887,
  "Ġtram": 27444,
  "Ġfastball": 26484,
  "remlin": 14437,
  "Ġdescrib": 2075,
  "glas": 12624,
  "Ġexempt": 19671,
  "itutes": 15463,
  "Ġclaim": 1399,
  "Ġbowl": 9908,
  "VEL": 26059,
  "Ġunpopular": 17739,
  "Ġcommercials": 23318,
  "ĠAre": 4651,
  "Ġliberties": 16937,
  "Ġgre": 16166,
  "ĠKom": 31476,
  "Ġhumane": 28395,
  "Ġtrap": 13871,
  "Ġslave": 13072,
  "Ġcaution": 11841,
  "Ġgra": 5814,
  "Ġreward": 6801,
  "rum": 6029,
  "Ġfriendly": 8160,
  "Ġanom": 17100,
  "Ġmapped": 26265,
  "ĠPost": 3026,
  "Ġdeclar": 24072,
  "ĠAdventure": 19190,
  "./": 22778,
  "ĠWade": 15370,
  "Ġpurity": 25865,
  "ensible": 28923,
  "vertisement": 3204,
  "Ġdisob": 27352,
  "rolog": 31055,
  "aucus": 12025,
  "asted": 8872,
  "Ġintegrated": 10793,
  "ilingual": 31556,
  "uring": 803,
  "ĠIsrael": 2074,
  "run": 5052,
  "Ġ45": 5051,
  "350": 17488,
  "por": 1765,
  "ĠFilipino": 27607,
  "Thus": 18855,
  "ĠUTC": 28873,
  "ĠGreek": 7716,
  "âĢľ[": 24978,
  "yo": 8886,
  "ĠRece": 21239,
  "ĠDear": 24718,
  "depth": 17965,
  "Ġdesktop": 10460,
  "Ġprotocol": 8628,
  "550": 28458,
  "aneous": 14510,
  "pick": 30541,
  "Ġmad": 8866,
  "escope": 16130,
  "Ġtemple": 13452,
  "Ġtrailer": 11021,
  "inate": 14775,
  "ĠWH": 9221,
  "ĠSpace": 5664,
  "Ġstro": 10462,
  "Ġvulnerability": 13890,
  "ĠMotor": 11969,
  "En": 6366,
  "ĠButton": 29305,
  "Ġcondolences": 30991,
  "Ġmeasurements": 14244,
  "ues": 857,
  "Ġproblem": 1726,
  "eches": 13872,
  "ĠPT": 14356,
  "ĠChat": 28026,
  "Ġcommunism": 23348,
  "mi": 13001,
  "Ġtwentieth": 25892,
  "ĠTheory": 17621,
  "Continue": 26726,
  "ĠEllison": 26362,
  "Ġausterity": 16055,
  "Ġrecounted": 27066,
  "ĠTet": 30520,
  "anguage": 11226,
  "ĠBurger": 24033,
  "ÙĲ": 29157,
  "ĠSunni": 14416,
  "lists": 23841,
  "à¸": 10802,
  "NN": 4637,
  "Ġregression": 21717,
  "Ġunconstitutional": 16257,
  "Ġmedia": 1630,
  "imer": 18771,
  "Disney": 31459,
  "Ġfee": 7816,
  "Ġhurting": 18618,
  "Ġcomfortable": 6558,
  "ĠValentine": 23619,
  "Ġnotion": 8091,
  "Ġforgiven": 30293,
  "atile": 12588,
  "ĠCla": 25167,
  "Ġnond": 29533,
  "MB": 11073,
  "achelor": 19728,
  "Ġpossess": 9480,
  "hew": 13907,
  "Ġcompelled": 19167,
  "Ġresentment": 24533,
  "Ġamnesty": 24763,
  "Ġtobacco": 12012,
  "ugged": 13640,
  "za": 4381,
  "Ġzoom": 18278,
  "Ġmessaging": 16178,
  "ibus": 28996,
  "Ġconcepts": 10074,
  "Ġpropose": 16420,
  "Ġeffect": 1309,
  "pection": 16574,
  "Ġhonestly": 12015,
  "Ġcores": 20450,
  "Share": 10674,
  "ĠRevolution": 8557,
  "Ġharassing": 30743,
  "Ġarose": 20362,
  "Ġbinary": 14771,
  "Ġcreative": 6242,
  "llo": 13011,
  "Ġbeans": 16838,
  "ende": 29874,
  "Ġparental": 21263,
  "uted": 8720,
  "Ġmanipulating": 26611,
  "Ġmarched": 19543,
  "ĠVincent": 17191,
  "Ġcaught": 4642,
  "Ġ(-": 17208,
  "ĠLanka": 22568,
  "ĠCaption": 11229,
  "--------": 2852,
  "Ġmakeup": 16056,
  "ĠIniti": 16081,
  "Ġpops": 25728,
  "ĠCenter": 3090,
  "asa": 15716,
  "itnesses": 20126,
  "Ġwithdrawal": 14192,
  "vers": 639,
  "Ġsustain": 6906,
  "Ġmissing": 4752,
  "ion": 254,
  "ises": 2726,
  "ago": 3341,
  "Peter": 17470,
  "Ġasym": 24873,
  "Ġprocedures": 9882,
  "mn": 12529,
  "ĠParticipants": 28854,
  "Self": 27847,
  "ogo": 23971,
  "Ġpreferences": 15377,
  "Ġcentered": 17264,
  "Ġfollowing": 1833,
  "partisan": 21096,
  "Ġexpl": 1101,
  "Ġpromised": 6791,
  "activity": 23725,
  "Ġmed": 996,
  "ĠWesley": 26977,
  "Ġlevels": 3069,
  "adan": 24343,
  "ifier": 10865,
  "ĠChase": 15970,
  "Ġhubs": 31836,
  "Ġappar": 17629,
  "ñ": 172,
  "once": 26401,
  "Ġmeeting": 2798,
  "ĠStefan": 25226,
  "ICE": 11661,
  "Ġrape": 6785,
  "ĠNetanyahu": 12320,
  "ĠAld": 14408,
  "ĠConn": 19152,
  "ouring": 21087,
  "Ġstirring": 27863,
  "ĠNO": 11052,
  "Ġbelongings": 29522,
  "ĠMyanmar": 23354,
  "Ġdisable": 21947,
  "Ġtransition": 5808,
  "endered": 26572,
  "num": 25251,
  "undred": 2988,
  "ĠPOLIT": 24642,
  "\"âĢĶ": 31030,
  "ĠArizona": 6657,
  "ĠStra": 15238,
  "146": 31098,
  "Ġimprov": 27500,
  "Ġinfected": 12863,
  "Ġredemption": 28315,
  "Ġenforced": 18191,
  "ĠSubst": 30540,
  "athered": 7793,
  "ĠST": 5256,
  "Ġforeigners": 16386,
  ".-": 8537,
  "Ġtaxp": 7631,
  "Mom": 28109,
  "ĠHollywood": 6934,
  "ĠPen": 8090,
  "ijuana": 4024,
  "Ġcleaned": 21124,
  "ĠISO": 22113,
  "Ġstarts": 4987,
  "thus": 31536,
  "ĠPalmer": 15896,
  "!âĢĻ": 19866,
  "Ġitem": 3344,
  "nesday": 2773,
  "ĠRP": 30246,
  "Ġadulthood": 26570,
  "ĠGreenpeace": 30109,
  "olf": 4379,
  "Ġmedicine": 8523,
  "Ġmenu": 8280,
  "lif": 29925,
  "Ġtitle": 3580,
  "Finally": 10031,
  "ĠJohn": 1530,
  "ĠPere": 14170,
  "Ġoutcome": 7226,
  "Ġdeveloper": 7100,
  "Ġprud": 24726,
  "Ġparents": 3107,
  "Ġlawful": 23316,
  "ĠScarborough": 26657,
  "Ġfreel": 16867,
  "Ġonline": 2439,
  "Ġmasculine": 26555,
  "Ġunf": 3413,
  "Ġreproductive": 17317,
  "Ġ92": 14988,
  "usive": 8051,
  "Ġpos": 1328,
  "ĠOC": 24917,
  "ĠBart": 12642,
  "How": 2354,
  "Ġblessed": 19783,
  "ĠMI": 16241,
  "hor": 16501,
  "ĠJune": 2510,
  "ĠAuckland": 25203,
  "rodu": 2117,
  "uly": 1853,
  "Ġsim": 935,
  "Ġletter": 3486,
  "Ġreversing": 31748,
  "Ġbelievers": 21427,
  "ĠChap": 12649,
  "Ġproves": 15631,
  "Def": 9829,
  "Ġbeats": 17079,
  "Count": 16010,
  "ĠEth": 9800,
  "ĠBill": 3381,
  "Ġum": 18342,
  "Ġyard": 12264,
  "oyal": 4606,
  "Ġward": 15719,
  "ĠTT": 27369,
  "AND": 9059,
  "Ġboyfriend": 13384,
  "Ġgorge": 17247,
  "ĠPers": 10222,
  "state": 5214,
  "ca": 7947,
  "igg": 6915,
  "finals": 23552,
  "Ġaboard": 14696,
  "Ġbanner": 15406,
  "Ġphil": 4751,
  "ĠFlyers": 23067,
  "Add": 6288,
  "Ġprostitutes": 27934,
  "Malley": 27188,
  "Ġmish": 25012,
  "Ġbail": 8120,
  "Ġinsane": 12399,
  "ĠBabylon": 31959,
  "Ġjog": 28101,
  "Ġoptimize": 26240,
  "ork": 897,
  "Â®": 14228,
  "sty": 20969,
  "ple": 1201,
  "Ġpalette": 30394,
  "Ġmerge": 20915,
  "Ġjewel": 18654,
  "Ġfigur": 28673,
  "ĠBoise": 31364,
  "Ġugly": 12363,
  "bright": 28800,
  "Ġsectors": 13697,
  "sequently": 19953,
  "Ġbuddy": 22884,
  "127": 24560,
  "Ġclinic": 13780,
  "Ġtroub": 7610,
  "LAND": 29388,
  "Ġire": 30643,
  "ĠIraqi": 8686,
  "Ġdiscouraged": 27036,
  "GS": 14924,
  "ancouver": 8180,
  "Dev": 19004,
  "irm": 2417,
  "ĠLow": 9145,
  "Ġdistribute": 16057,
  "ĠSeahawks": 14460,
  "Ġ;": 4126,
  "Ġbou": 31412,
  "Ġ1914": 24063,
  "ĠMonth": 17790,
  "Ġwires": 21129,
  "Ġtaxing": 30821,
  "Everyone": 14158,
  "ierre": 11985,
  "ĠManhattan": 10776,
  "ĠGreece": 8570,
  "Ġvideos": 5547,
  "ĠPhilly": 25978,
  "Ġexcell": 5870,
  "ĠTA": 27538,
  "260": 29519,
  "Ġstranded": 23987,
  "ĠArcade": 31042,
  "Ġequip": 5161,
  "ĠHello": 23543,
  "ĠAlvarez": 29307,
  "Ġtrump": 15723,
  "ĠTyr": 29108,
  "iami": 6628,
  "upon": 29820,
  "Ġrumors": 12574,
  "ĠMill": 9167,
  "Jordan": 28894,
  "ĠGin": 29769,
  "ĠAcross": 27335,
  "Ġscal": 16725,
  "ĠDad": 18952,
  "Ġcav": 23838,
  "ques": 11530,
  "Ġoffices": 8569,
  "ĠDawson": 27787,
  "munition": 13898,
  "Ġtries": 8693,
  "Ġmotivated": 10983,
  "Ġenhancing": 26336,
  "Ġdischarge": 21219,
  "Ġflooded": 19162,
  "kov": 17998,
  "Ġbegging": 24538,
  "Ġterrorist": 5993,
  "Ġrecol": 27580,
  "ĠOnline": 10549,
  "Ġglad": 10228,
  "Ġrespect": 2540,
  "Ab": 5348,
  "Ġyouthful": 31534,
  "bet": 11647,
  "ĠAnne": 13798,
  "Ġcriteria": 10956,
  "ulz": 26930,
  "2006": 18335,
  "turned": 25814,
  "Boston": 27689,
  "Ġwiret": 25088,
  "âĢĿ?": 17585,
  "ĠYak": 30314,
  "Ġvarying": 15368,
  "Ġrotation": 12469,
  "Ġfiat": 30869,
  "SQL": 18759,
  "Ġaims": 10205,
  "Ġshow": 816,
  "ĠAD": 7657,
  "your": 16038,
  "ĠJe": 12829,
  "Ġthinkers": 24448,
  "owa": 7024,
  "Ġfictional": 15655,
  "odied": 28531,
  "ĠBrandon": 12528,
  "ĠÑĤ": 26681,
  "odic": 26043,
  "Ġmagnet": 19104,
  "Ġshowing": 4150,
  "Ġmonit": 7465,
  "Ġflames": 17210,
  "Ġuneasy": 31533,
  "Ġsidelined": 29991,
  "ĠProtestant": 21629,
  "doc": 21035,
  "Ġsticker": 26524,
  "wig": 24710,
  "cht": 17778,
  "Ġaqu": 15248,
  "Ġrepository": 17426,
  "elf": 8144,
  "oven": 16411,
  "ered": 1102,
  "Ġoutweigh": 27277,
  "Ġcrawl": 27795,
  "High": 13787,
  "yards": 30688,
  "ups": 4874,
  "ĠHot": 7408,
  "Ġpoke": 25230,
  "Ġcommodities": 22087,
  "organ": 9030,
  "Put": 15196,
  "Ġcomr": 21565,
  "ĠLIVE": 30274,
  "util": 29894,
  "Ġexplores": 23218,
  "Ġspecifically": 5345,
  "igrated": 30744,
  "Ġtaxes": 5002,
  "Ġprinting": 12416,
  "Ġtendency": 12806,
  "Ġexperimental": 11498,
  "Ġbolster": 21109,
  "whelming": 31401,
  "Ġliquor": 18446,
  "ĠMexico": 4840,
  "oded": 8869,
  "recy": 16794,
  "Ġvoy": 21743,
  "ĠStre": 13737,
  "raid": 6952,
  "Ġslots": 18789,
  "bed": 3070,
  "ĠGulf": 9376,
  "Ġseized": 10218,
  "ĠTru": 15391,
  "Apart": 31529,
  "ĠPeak": 27061,
  "ĠConstitutional": 22387,
  "Ġcolleg": 11176,
  "ĠVilla": 18064,
  "Ġredesigned": 31741,
  "ourt": 2619,
  "ĠDeutsche": 28883,
  "Ġadaptation": 13809,
  "Date": 18130,
  "66": 6036,
  "icultural": 22046,
  "ĠCAR": 25080,
  "communication": 31769,
  "Ġcontradictions": 28799,
  "Judge": 23787,
  "ĠKang": 27510,
  "cs": 12990,
  "Dear": 18764,
  "gers": 4861,
  "ĠIllinois": 8605,
  "Ġassaults": 18676,
  "ĠCedar": 31783,
  "Ġdeposited": 29342,
  "Ġexpect": 1382,
  "amiliar": 17714,
  "seud": 12800,
  "bey": 21915,
  "Ġstabbed": 18861,
  "Ú": 149,
  "vention": 4519,
  "ilarly": 7293,
  "Ġsending": 6744,
  "between": 23894,
  "Ġexpert": 5300,
  "Ġvide": 1514,
  "Ġvibr": 13483,
  "ĠTen": 9531,
  "imes": 921,
  "riched": 28461,
  "Ġhitters": 25375,
  "Mo": 16114,
  "ÃŃn": 29340,
  "ĠUP": 18170,
  "ĠCommittee": 4172,
  "ĠAgreement": 15634,
  "Ġemployee": 7013,
  "Ġdiscourage": 23638,
  "Ġbulbs": 31355,
  "...)": 31519,
  "Ġcenturies": 9663,
  "Ġtrace": 13607,
  "Ġpriest": 12341,
  "cknow": 4712,
  "Ġinduce": 22574,
  "Gold": 15421,
  "nown": 3786,
  "ĠManagement": 9777,
  "Ġdetail": 3704,
  "Ġreef": 20343,
  "And": 1693,
  "Ġdecorated": 22219,
  "Ġassaulted": 15772,
  "essee": 9518,
  "ISA": 20714,
  "Ġpermission": 7746,
  "Ġtaxation": 21333,
  "Ġfriendship": 14312,
  "Ġexposes": 28765,
  "ogenous": 30411,
  "ĠPersonally": 28892,
  "asc": 3119,
  "Ġreactive": 30826,
  "Ġmeg": 14501,
  "Ġdemol": 13261,
  "Ġsupplement": 11900,
  "\\\"": 26011,
  "Ġignoring": 14290,
  "ĠVP": 21415,
  "ĠCongress": 2580,
  "Ġhover": 19860,
  "ĠMarqu": 24592,
  "Ġactivism": 16923,
  "WR": 19876,
  "ices": 1059,
  "Ġgloves": 19314,
  "Ġmilitant": 14544,
  "Ġbrightest": 28668,
  "Ġburgl": 22944,
  "Street": 31455,
  "drive": 24181,
  "wind": 10353,
  "ĠLiberties": 25631,
  "Ġwondering": 10580,
  "ĠWon": 22126,
  "amin": 6024,
  "ds": 10009,
  "ĠIS": 2974,
  "IDS": 14126,
  "ĠBeach": 8175,
  "ollow": 946,
  "ĠPartnership": 20029,
  "velength": 25077,
  "know": 16015,
  "Ġsurf": 8679,
  "ĠBerger": 26834,
  "ible": 854,
  "Ġlifespan": 29827,
  "Ġslim": 18068,
  "Ġsells": 14525,
  "vision": 9630,
  "enses": 4869,
  "plete": 8542,
  "ĠBrent": 19457,
  "Ġmedian": 13410,
  "izer": 9579,
  "ĠHere": 3626,
  "anco": 25615,
  "ĠTel": 10840,
  "ĠRid": 23519,
  "Ġyears": 715,
  "ĠDon": 1988,
  "Ġgeometry": 23479,
  "Ġpotentially": 5341,
  "Ġrestaur": 4543,
  "Ġhabitat": 16754,
  "ĠGarc": 13662,
  "ĠVita": 21926,
  "ibi": 25792,
  "ĠKatie": 22541,
  "ĠInvestigation": 20745,
  "ĠMormons": 29247,
  "config": 18986,
  "Ġignorant": 19364,
  "va": 6430,
  "Ġreminding": 25386,
  "End": 16550,
  "ĠSharia": 26085,
  "Ġparallel": 10281,
  "fs": 12400,
  "Ġfrust": 5711,
  "Ġjew": 13639,
  "Ġcover": 2891,
  "Ġcollusion": 23035,
  "Ġgreens": 29746,
  "ĠPel": 11944,
  "ik": 1179,
  "ery": 2214,
  "Ġmiddle": 3228,
  "Ġcriticized": 9015,
  "Ġhammer": 16107,
  "uss": 953,
  "bec": 8142,
  "Ġrespectable": 24094,
  "position": 24575,
  "ĠTuls": 29346,
  "ĠRams": 13653,
  "Ġlives": 2769,
  "Ġsoundtrack": 17086,
  "Ġunve": 10109,
  "Previous": 23653,
  "Ġprimaries": 18682,
  "Ġdeterrent": 27887,
  "grass": 28891,
  "Third": 21493,
  "onal": 17118,
  "ĠMulti": 23052,
  "Ġfinal": 2201,
  "ĠNothing": 11423,
  "Col": 7627,
  "Ġinefficient": 25905,
  "oubtedly": 14477,
  "Ġintense": 7585,
  "usal": 6282,
  "Sand": 14973,
  "ĠCup": 4255,
  "Ġserved": 4373,
  "Ġnets": 27766,
  "Ġdepth": 6615,
  "SF": 20763,
  "ĠHC": 30521,
  "Ġseeks": 11388,
  "pus": 26092,
  "ĠRoberto": 25036,
  "Ġenterprise": 12056,
  "ĠLands": 30855,
  "iba": 24266,
  "Ġrelegated": 27565,
  "Id": 11616,
  "Ġimplementing": 13714,
  "Ġrecommendations": 10264,
  "Ġpatient": 6012,
  "Ġapples": 22006,
  "otti": 22034,
  "Ġpillow": 31274,
  "ĠContin": 7393,
  "Ġmixed": 7204,
  "Ġneeding": 16939,
  "Ġopera": 20876,
  "ĠPHP": 18402,
  "Ġcognition": 29228,
  "conscious": 18266,
  "Ġjerk": 31149,
  "ĠWhile": 2717,
  "esis": 13068,
  "idy": 18319,
  "ĠHistoric": 28074,
  "Ġbreadth": 29436,
  "Ġanytime": 16655,
  "ĠLee": 5455,
  "irts": 9113,
  "Ġpirates": 24350,
  "ĠStandard": 11115,
  "ĠGuys": 30655,
  "Ġmountain": 8627,
  "Ġbout": 15538,
  "ĠBMI": 31130,
  "Keep": 16030,
  "ĠRepublic": 1523,
  "White": 11837,
  "wyn": 25252,
  "Professor": 22173,
  "ĠBapt": 17038,
  "ĠGian": 24580,
  "Ġunspe": 23624,
  "amac": 8731,
  "iable": 3757,
  "Ġreturns": 6447,
  "ĠIM": 10635,
  "pay": 16258,
  "Ġfirst": 644,
  "ĠSu": 2112,
  "few": 27445,
  "Ġmatchup": 17728,
  "ablishment": 22098,
  "omon": 17994,
  "Ġarrog": 17819,
  "production": 22105,
  "ĠStur": 22957,
  "obi": 15492,
  "Ġrebuilding": 19956,
  "ĠPaulo": 26349,
  "Ġty": 1373,
  "Ġdiving": 20661,
  "Ġdemocrat": 22401,
  "Ġnutrients": 21223,
  "ÑĢÐ¸": 25810,
  "Ġ1934": 27059,
  "Ġviewer": 17354,
  "aks": 4261,
  "ĠGraphics": 31409,
  "Ġrecommending": 29864,
  "Ġamongst": 11737,
  "Ġtechnological": 11986,
  "Is": 3671,
  "ĠVed": 31956,
  "ress": 551,
  "ĠGuantanamo": 24135,
  "Ġcouncillor": 29062,
  "Ġseries": 1851,
  "Ġnewest": 14358,
  "clock": 18486,
  "ĠArmy": 4908,
  "Ġcomplain": 12122,
  "Building": 27263,
  "Ġfloor": 4503,
  "Ġcounty": 7385,
  "ĠSara": 23194,
  "Ġfolders": 30779,
  "Ġsupplements": 23636,
  "ĠAuburn": 20094,
  "Ġfeasible": 20765,
  "tml": 25029,
  "amacare": 8840,
  "In": 748,
  "Ġprem": 3883,
  "Ġsurrog": 23148,
  "amba": 27524,
  "Ġbuzz": 12633,
  "ĠHarley": 28364,
  "ĠCCTV": 27760,
  "Ġbribes": 31271,
  "gery": 6844,
  "Ġrecognizable": 25995,
  "reg": 2255,
  "!)": 8653,
  "Ġratios": 23315,
  "arently": 11906,
  "ĠMakes": 31319,
  "Ġquotes": 12478,
  "esh": 8433,
  "ĠDebian": 29097,
  "rill": 19013,
  "Ġstumbled": 21935,
  "ORK": 16050,
  "ĠReggie": 30563,
  "abeth": 8760,
  "Ġeggs": 10014,
  "Ġenforcement": 4743,
  "Ġopposite": 6386,
  "Ġexplosions": 20578,
  "Ġsake": 11213,
  "igure": 6917,
  "Ġ1923": 31983,
  "Ġdogs": 7119,
  "ĠS": 276,
  "Ġsponsored": 13422,
  "Ġparaly": 25272,
  "Ġauthent": 8597,
  "ouver": 8088,
  "Ġscored": 6234,
  "Ġjaw": 18857,
  "ĠCharl": 5608,
  "Ġparish": 25393,
  "ĠRabbit": 31056,
  "Ġjump": 3969,
  "ĠJinping": 29947,
  "Ġexhaust": 14011,
  "Ġairborne": 30971,
  "line": 1278,
  "Ġuranium": 17375,
  "ĠReyn": 17359,
  "Ġrumours": 24184,
  "ĠWong": 23359,
  "Ġbureaucrat": 14789,
  "ĠGenesis": 21521,
  "Ġflurry": 29387,
  "uds": 21152,
  "TR": 9945,
  "ĠBangkok": 28828,
  "Ġenvy": 29300,
  "Ġdil": 11992,
  "rencies": 11914,
  "Ġcasualties": 14843,
  "ĠCOL": 29066,
  "itiz": 2612,
  "Rub": 18768,
  "Ġhanging": 10345,
  "ĠTime": 5170,
  "ĠSchne": 18459,
  "ĠPrivacy": 16691,
  "Ġ''": 13380,
  "Ġmembers": 1659,
  "aily": 2837,
  "Ġfavourite": 11472,
  "perature": 30367,
  "ting": 734,
  "aves": 3255,
  "Ġportfolio": 14111,
  "Ġliable": 22228,
  "van": 9474,
  "Ġbeing": 764,
  "GR": 14542,
  "Ġclasses": 6241,
  "Jeff": 16681,
  "seller": 27913,
  "âĢĿ,": 3949,
  "ots": 1667,
  "Ġbom": 7482,
  "Ġ1979": 12367,
  "ĠOrche": 29757,
  "Ġtruth": 3763,
  "ĠStadium": 8665,
  "Ġdubbed": 13664,
  "ĠWolf": 9507,
  "Ġsurgery": 7589,
  "Organ": 24270,
  "ĠRah": 14507,
  "Ġconst": 1478,
  "Ġ1928": 30322,
  "ĠAlleg": 24401,
  "imb": 4896,
  "North": 12712,
  "owing": 8075,
  "About": 8452,
  "ĠBeck": 9294,
  "Ġseveral": 1635,
  "Ġvast": 5193,
  "up": 856,
  "Ġschol": 6356,
  "Series": 31241,
  "Ã¯": 22561,
  "Ġproced": 5548,
  "ot": 270,
  "money": 23121,
  "urned": 12706,
  "Ġoutp": 25883,
  "ĠOak": 7855,
  "ĠTPP": 18825,
  "Ġherd": 25466,
  "ĠSeattle": 6014,
  "Ġmargins": 17040,
  "Ġmaster": 5429,
  "Ġnotoriously": 23868,
  "Ġsupremacy": 21846,
  "aba": 14360,
  "oha": 28038,
  "Ġoffended": 20048,
  "Ġperil": 23061,
  "155": 26652,
  "Ã´": 24513,
  "dist": 18065,
  "ibly": 2968,
  "Ġspinal": 26457,
  "Ġbursts": 27948,
  "Ġears": 12507,
  "rie": 5336,
  "Ġcheat": 23262,
  "ĠMonthly": 30665,
  "Ġfulf": 8519,
  "Ġphosph": 19907,
  "Ġavo": 10804,
  "Clinton": 12961,
  "Ġspoken": 8751,
  "lets": 5307,
  "ĠGriff": 10945,
  ")?": 20827,
  "Ġboot": 7203,
  "ugging": 13983,
  "Ġasserts": 25685,
  "ĠLie": 12394,
  "ĠMickey": 24520,
  "Ġ28": 3324,
  "Ġescalating": 25324,
  "ĠHammond": 22424,
  "ĠLiqu": 19563,
  "Ġnucle": 17493,
  "larg": 15476,
  "Ġintends": 16419,
  "ĠRobert": 4658,
  "Good": 11156,
  "imposed": 30354,
  "abel": 14331,
  "ĠNGOs": 26229,
  "Ġribbon": 31040,
  "Ġvivid": 19740,
  "Ġaccum": 10405,
  "Ġ6": 898,
  "uable": 6627,
  "128": 21380,
  "Ġembraced": 14751,
  "Ġsqueeze": 20269,
  "ĠRocket": 22481,
  "net": 3812,
  "ĠNetflix": 9505,
  "ĠArmenia": 26340,
  "Ġespionage": 23544,
  "Ġlame": 27038,
  "osphere": 18921,
  "icus": 21857,
  "celona": 11678,
  "Ġgest": 10177,
  "ĠPur": 13091,
  "Ġactually": 1541,
  "ĠTom": 3838,
  "Ġoils": 23391,
  "ĠSharif": 31606,
  "ĠArchae": 30436,
  "ĠCron": 28183,
  "ĠArrow": 20857,
  "Ġdemonstrations": 14051,
  "Ġshelves": 18024,
  "Ġcomprised": 19233,
  "Ġdesires": 16715,
  "ĠK": 483,
  "ĠBever": 19442,
  "Ġarsenal": 20360,
  "Ġeconomics": 10022,
  "Ġhouse": 2111,
  "Ġdecreasing": 23427,
  "Ġrepairs": 20539,
  "resent": 1836,
  "ĠAg": 2805,
  "Ġcups": 16112,
  "Ġbad": 1937,
  "ĠHolocaust": 15579,
  "ĠLaf": 26661,
  "ĠJill": 20122,
  "Ġcla": 27203,
  "Ġexecutives": 9575,
  "Ġsprings": 27440,
  "ĠDisneyland": 30051,
  "percent": 24458,
  "regular": 17814,
  "Ġnutrition": 17166,
  "Ġperiodically": 26373,
  "âĢĿ.": 2922,
  "Ġ1977": 14934,
  "Prosecutors": 29656,
  "ĠAthe": 25588,
  "Ġorthodox": 24017,
  "Ġhype": 16958,
  "Ġbonuses": 17414,
  "Ġshowcase": 17650,
  "laughs": 23596,
  "sharing": 17361,
  "intelligence": 26631,
  "ĠNorfolk": 27592,
  "umbled": 12472,
  "or": 230,
  "Ġthought": 1743,
  "uing": 3289,
  "ĠFa": 19694,
  "ĠAmazing": 26651,
  "Ġveil": 29863,
  "atever": 3511,
  "Ġpragmatic": 26089,
  "Ġhave": 370,
  "oly": 4282,
  "Ġallege": 27331,
  "landers": 28613,
  "magic": 28303,
  "RC": 8540,
  "Ġnarcotics": 30616,
  "Ġsedan": 30813,
  "ciples": 7018,
  "ĠMorales": 28944,
  "epend": 2377,
  "Ġmeltdown": 24654,
  "Ġcone": 30719,
  "Ġdamaged": 9707,
  "Ġalmond": 27380,
  "ĠLAN": 26903,
  "cul": 3690,
  "69": 7200,
  "Saudi": 29038,
  "Ġdistance": 5674,
  "RT": 12683,
  "ĠHaz": 17597,
  "Ġthriving": 22345,
  "09": 6587,
  "Ġoblig": 6894,
  "eat": 28523,
  "ÃŃ": 6059,
  "ispensable": 31794,
  "ĠExcept": 21151,
  "Advertising": 25436,
  "Ġpanc": 22081,
  "Ġsick": 6425,
  "ĠMont": 5018,
  "ĠEngland": 3962,
  "Ġtha": 19365,
  "34": 4518,
  "ANG": 21540,
  "Ġposes": 15240,
  "Ġauthor": 1734,
  "ty": 806,
  "Ġcontact": 3013,
  "Ġacres": 13534,
  "Democratic": 25435,
  "Ġguardian": 28321,
  "Ġbrilliant": 9197,
  "ĠElliot": 27709,
  "Ġbuying": 6332,
  "Ġcalculate": 16338,
  "Ġproble": 1239,
  "ĠFront": 9134,
  "Ġresolution": 6100,
  "Ġapartment": 7234,
  "gradation": 24971,
  "Ġrelocation": 30113,
  "Ġdivides": 30742,
  "Lat": 27459,
  "Ġhal": 9493,
  "ĠUKIP": 27621,
  "Ġreluctance": 27634,
  "Ġcapita": 19851,
  "Ġwin": 1329,
  "Ġcompassionate": 27943,
  "ĠPot": 8551,
  "Ġanalyst": 9566,
  "Ġoccupying": 25498,
  "OSE": 16711,
  "ĠCharlotte": 13428,
  "Ġinnocent": 9314,
  "rir": 30216,
  "ĠFab": 13588,
  "Ġdisl": 26608,
  "Ġswarm": 30530,
  "Ġsudden": 5014,
  "ylum": 9831,
  "Ġconstitutes": 19078,
  "Ġsports": 4773,
  "ĠOcean": 10303,
  "quire": 16492,
  "Ġvictims": 4407,
  "Ġlobbyists": 18668,
  "Ġcommentators": 19334,
  "ĠPol": 1969,
  "Ġcontinue": 2238,
  "Ġowners": 3911,
  "ĠSMS": 27809,
  "Ġslips": 31742,
  "ĠStephan": 18381,
  "ribution": 3986,
  "Ġask": 1169,
  "otherapy": 18841,
  "Ġtub": 13791,
  "idering": 5026,
  "Ġclearer": 19558,
  "ĠWeinstein": 19223,
  "Ġinevitably": 14307,
  "ĠOversight": 30405,
  "ĠSL": 16379,
  "Ġautopsy": 26616,
  "Ġdumb": 13446,
  "ĠGrove": 23251,
  "edia": 5530,
  "NPR": 28897,
  "Ġshot": 2579,
  "ptive": 25695,
  "ĠInterestingly": 23667,
  "Ġestimated": 5274,
  "ĠCause": 27436,
  "map": 11685,
  "Ġbroadc": 15621,
  "formation": 4798,
  "ibli": 26004,
  "hole": 14385,
  "five": 13165,
  "ĠRailroad": 31832,
  "inal": 1311,
  "ĠThrones": 18636,
  "Ġfollowed": 3651,
  "uters": 5059,
  "Ġaccessibility": 26477,
  "Ġhemisphere": 28015,
  "TV": 5659,
  "Ġpioneer": 24076,
  "Ġnominees": 19614,
  "Ġ2009": 3164,
  "grid": 27752,
  "Ġoffseason": 11842,
  "ĠMusk": 16707,
  "Ġjumps": 19164,
  "ĠPrior": 17133,
  "ĠConway": 20654,
  "ĠRegist": 24008,
  "Ġproceedings": 13660,
  "Ġain": 18405,
  ".âĢĿ[": 26102,
  "ĠRoss": 8573,
  "ĠAns": 23639,
  "ch": 311,
  "Ġstorm": 5707,
  "Ġdeveloped": 3751,
  "ples": 2590,
  "Ġcataly": 18923,
  "itions": 1795,
  "ĠEverton": 19939,
  "Ġstart": 852,
  "Ġorganisers": 30373,
  "Ġimproved": 6172,
  "Ġincon": 15304,
  "ivalent": 30202,
  "Ġattack": 1295,
  "advant": 13129,
  "ĠNad": 17028,
  "ĠHatch": 28775,
  "Ġgast": 24317,
  "Ġjun": 30301,
  "Ġret": 1022,
  "ously": 3261,
  "Ġcustom": 2164,
  "ĠAp": 8598,
  "ĠBenef": 25200,
  "Ġperpetrators": 21252,
  "Ġenthusiasts": 19859,
  "Ġdictators": 16756,
  "ĠSaturn": 19604,
  "Ġcontinually": 16648,
  "lligence": 3075,
  "Component": 31506,
  "Ġlikes": 6957,
  "ĠEden": 25530,
  "ĠJose": 4975,
  "Ġbounced": 27063,
  "entric": 20991,
  "ession": 2934,
  "Ġcounselor": 29559,
  "Ġby": 374,
  "Ġancestors": 17683,
  "ĠVeterans": 18108,
  "ĠHurricane": 14798,
  "Ġguys": 3386,
  "Ġambient": 26123,
  "fields": 27920,
  "Ġmodifications": 20781,
  "Ġmines": 17109,
  "Ġpitches": 17326,
  "Ġeffort": 3137,
  "ĠHoward": 8741,
  "Ġareas": 2811,
  "endas": 28333,
  "perfect": 24469,
  "Ġexisting": 4445,
  "Ġsymbolic": 16490,
  "members": 31065,
  "Ġknocked": 12664,
  "ĠCuomo": 23229,
  "Ġcommonly": 8839,
  "bands": 21196,
  "usters": 12500,
  "Ġnm": 31494,
  "entials": 14341,
  "Ġdifficult": 2271,
  "Ġtraffic": 4526,
  "Ġjer": 10530,
  "Ġfries": 30107,
  "Ġunrealistic": 26082,
  "Ġreceive": 3489,
  "Ġcheer": 13142,
  "comb": 21875,
  "uggets": 25621,
  "oming": 6462,
  "|>": 658,
  "Ġma": 18196,
  "Sund": 20797,
  "Ġintervals": 23096,
  "ĠValent": 17448,
  "Ġpop": 1291,
  "Ġseats": 7123,
  "WW": 17297,
  "ĠAnd": 757,
  "ĠCrowd": 28694,
  "Ġwho": 447,
  "icide": 4969,
  "ĠJanuary": 2793,
  "Ġincorpor": 8367,
  "ĠScotland": 7168,
  "anium": 13566,
  "pret": 6354,
  "Ġmobile": 4439,
  "Ġcode": 2486,
  "Ġcouncillors": 31404,
  "Ġgenocide": 17189,
  "isans": 21247,
  "Dom": 30305,
  "ĠRiverside": 30238,
  "ĠRogue": 26536,
  "Ġblah": 31204,
  "ĠNuclear": 18413,
  "Ġprovisions": 11143,
  "Ġapplicable": 16717,
  "leys": 20354,
  "ĠTal": 6706,
  "ÃĥÃĤ": 7004,
  "Ġovercoming": 31991,
  "}}": 9973,
  "ĠPsychology": 23506,
  "Ġoccupied": 11035,
  "ĠSa": 10231,
  "Ġencl": 23695,
  "Ġhiatus": 29998,
  "urst": 19964,
  "acey": 22428,
  "Ġtan": 24259,
  "Ġfishermen": 27071,
  "ĠBolivia": 31729,
  "estation": 31183,
  "ĠEnd": 7059,
  "ĠJas": 23182,
  "Ġvillages": 13209,
  "ĠMason": 13801,
  "Ġhunters": 20841,
  "Ġrights": 2105,
  "Ġearners": 28827,
  "ab": 364,
  "ĠFL": 15762,
  "Ġearthquakes": 24589,
  "dullah": 19071,
  "Ġmantle": 29151,
  "oding": 8324,
  "Rick": 28426,
  "educated": 22066,
  "Ġrepresented": 7347,
  "three": 15286,
  "Ġtornado": 27041,
  "Ġoutwe": 23122,
  "ĠAlice": 15657,
  "Ġrich": 5134,
  "Ġwaved": 27201,
  "Ġhen": 30385,
  "Research": 24269,
  "Ġobservation": 12964,
  "Ġstark": 15310,
  "Ġrampant": 21291,
  "raper": 25049,
  "Ġsurviving": 16096,
  "Ġperfection": 21175,
  "ĠEsp": 18159,
  "Ġupside": 15132,
  "ĠFiction": 28049,
  "|>(": 17344,
  "Ġpuppy": 28564,
  "Ġapplication": 4063,
  "issance": 13979,
  "Ġditch": 22667,
  "ĠBrock": 19465,
  "Ġactress": 11953,
  "Ġhalluc": 22937,
  "Ġinnovations": 20420,
  "Ġgossip": 27462,
  "ĠSne": 30199,
  "arcity": 27763,
  "ĠRio": 12543,
  "Ġoppose": 10387,
  "rid": 5813,
  "athed": 28604,
  "Õ": 144,
  "Ġinnings": 12748,
  "Ġphys": 2337,
  "Ġincent": 8010,
  "Ġsleeves": 29891,
  "ĠMuhammad": 14163,
  "Dep": 14362,
  "Ġsuscept": 18738,
  "Ġcomments": 3325,
  "Download": 14767,
  "Ġdisease": 4567,
  "Ġwand": 14243,
  "Ġaide": 14456,
  "Ġcite": 19850,
  "Ġhurdles": 25451,
  "Ġdetails": 3280,
  "ĠCommonwealth": 17523,
  "Ġmarching": 22069,
  "Ġlust": 27546,
  "Ġemploying": 23512,
  "ĠHTTP": 16747,
  "Ġgovern": 851,
  "Ġholidays": 15938,
  "aunch": 21640,
  "apture": 25845,
  "Ġoxygen": 11928,
  "ĠHudson": 16962,
  "Ġsurgeries": 27675,
  "usalem": 9225,
  "Hop": 19629,
  "Ġsurvey": 4888,
  "Target": 30454,
  "umped": 21763,
  "Ġresisting": 24100,
  "Ġnearly": 2620,
  "ĠNode": 19601,
  "ampire": 18092,
  "Ġgrief": 18305,
  "aps": 1542,
  "ĠWolverine": 31934,
  "Ġdopamine": 26206,
  "irst": 609,
  "Ġsatell": 7366,
  "ĠExamples": 28104,
  "Ð±": 21688,
  "book": 1768,
  "hol": 12189,
  "Ġhub": 11102,
  "Ġ2013": 2102,
  "Ġoffenses": 17527,
  "Ġmillions": 4260,
  "ussed": 26842,
  "utic": 19026,
  "Ġknot": 28878,
  "Ã": 126,
  "anthrop": 18377,
  "ouri": 9266,
  "Ġspilled": 27473,
  "Ġgovernance": 14458,
  "Ġfrenzy": 28071,
  "Ġapply": 5116,
  "Ġconnects": 19276,
  "Ġflatten": 28731,
  "Ġfoot": 2039,
  "uer": 7873,
  "inas": 21433,
  "Ġdamaging": 12858,
  "Ġlate": 2343,
  "angled": 19530,
  "ĠHP": 12927,
  "ĠSoft": 11528,
  "Ġerrors": 9445,
  "ĠTunisia": 25144,
  "ĠKate": 15765,
  "Ġchicken": 9319,
  "ruck": 30905,
  "Ġarous": 24610,
  "etsk": 25098,
  "Ġinterceptions": 21665,
  "ĠBen": 3647,
  "theless": 9056,
  "Ġnoticeable": 19633,
  "used": 1366,
  "AME": 16602,
  "Ġted": 26393,
  "ĠProfessor": 8482,
  "Ġsoc": 1137,
  "Ġdebating": 24554,
  "Ġtopics": 10069,
  "Ġwrath": 29904,
  "Ġdeepest": 22530,
  "Ġbill": 1947,
  "Fix": 28186,
  "Ġsky": 6752,
  "Ġimport": 1235,
  "azingly": 23615,
  "THE": 11802,
  "Ġcourage": 11039,
  "rays": 18193,
  "Ġfaded": 23514,
  "Ġdrafts": 25434,
  "Ġarticulate": 26655,
  "Ġhappy": 3559,
  "productive": 22440,
  "Ġteaches": 16285,
  "ĠPan": 6758,
  "ĠUkraine": 6037,
  "Ġrobotic": 20602,
  "Ġterritorial": 18955,
  "ĠVS": 29058,
  "Ġhooked": 21388,
  "Ġuncommon": 18308,
  "ĠCircuit": 12598,
  "Ġspeed": 3062,
  "Ġcomeback": 17093,
  "Ġvoted": 5385,
  "oe": 2418,
  "ĠPar": 2546,
  "ook": 521,
  "rate": 4297,
  "ĠCele": 19415,
  "Ġbreathtaking": 30615,
  "Ġsuperficial": 28961,
  "urity": 1443,
  "Ġfragment": 25693,
  "ĠViolence": 21377,
  "Ġswimming": 13740,
  "Produ": 20271,
  "amination": 29513,
  "Ġmodeling": 20345,
  "ocalypse": 19421,
  "able": 530,
  "NBA": 27235,
  "Ġaudio": 7406,
  "icular": 22624,
  "rough": 693,
  "fortunately": 6268,
  "ĠPowers": 22500,
  "ĠBarbara": 14917,
  "Ġblasp": 27666,
  "ĠNov": 5515,
  "ĠStaff": 10284,
  "Ġsafest": 30933,
  "ĠJackie": 21788,
  "sy": 1970,
  "Ġoutbreaks": 29758,
  "shoot": 27148,
  "Ġillustration": 19770,
  "Ġfra": 20643,
  "sections": 29230,
  "player": 9846,
  "âĢ": 247,
  "oub": 10833,
  "Ġprag": 19634,
  "Ġintroduces": 20030,
  "ĠLara": 29781,
  "Ġreplied": 9009,
  "Ġreasonably": 14573,
  "Ġhighlight": 4684,
  "Ġbl": 677,
  "Ġess": 3028,
  "Stand": 23534,
  "89": 8165,
  "November": 20648,
  "Ġliquid": 8500,
  "Ġabrupt": 17635,
  "Ġenergy": 2333,
  "Ġconvinc": 13584,
  "ĠFT": 25260,
  ";": 27,
  "hern": 2586,
  "vict": 29738,
  "Ġunstable": 19813,
  "plays": 31018,
  "ĠFernand": 21292,
  "ĠChanges": 24901,
  "ĠLew": 7264,
  "reat": 598,
  "oln": 9925,
  "Ġachieved": 7899,
  "###": 30889,
  "ean": 3862,
  "Ġproving": 15279,
  "Ġdistorted": 24633,
  "estinal": 25164,
  "Ġage": 2497,
  "Ġinherent": 10480,
  "Ġfem": 2749,
  "ĠMinecraft": 26747,
  "Ġcivilization": 13322,
  "pract": 25102,
  "ce": 303,
  "Ġskeptics": 28602,
  "ĠYes": 4768,
  "Ġhits": 7049,
  "Then": 6220,
  "Ġhire": 9931,
  "hn": 18995,
  "Ġinterviewed": 10208,
  "ĠQU": 28802,
  "gly": 10897,
  "Ġexamine": 10875,
  "ĠHeck": 29515,
  "ĠBeijing": 9203,
  "ĠSpot": 15174,
  "int": 570,
  "Ġ(.": 20530,
  "orian": 20586,
  "Ġmonarch": 21951,
  "ĠCare": 7425,
  "linear": 29825,
  "Ġattention": 2950,
  "Ġphotographs": 11217,
  "Ġgentleman": 24865,
  "asy": 4470,
  "OA": 26051,
  "Ġattacks": 3198,
  "ĠActiv": 16361,
  "Ġpremiums": 18603,
  "Ġstressed": 12087,
  "ĠFal": 9731,
  "Ġpity": 29079,
  "Ġelection": 2385,
  "Ġhandler": 23839,
  "Ġcontractors": 14717,
  "Ġselective": 20545,
  "FI": 16393,
  "inally": 3233,
  "Ġcrumbling": 30841,
  "ĠLe": 1028,
  "Ġregulating": 23662,
  "erals": 16117,
  "ounter": 17687,
  "ologne": 26583,
  "Ġeagerly": 27987,
  "iak": 27556,
  "ĠMah": 8333,
  "ees": 2842,
  "ĠMa": 5811,
  "Ġattach": 16474,
  "ĠMonster": 17049,
  "venge": 30722,
  "chair": 14519,
  "ĠTruman": 27902,
  "Ġdispersed": 31336,
  "HI": 24877,
  "Ġseed": 9938,
  "Ġjour": 26208,
  "Ġreson": 12948,
  "Ġhoax": 21251,
  "Ġdiseases": 9896,
  "yer": 8904,
  "Ġdesign": 1408,
  "Ġorientation": 12305,
  "ĠMontana": 15978,
  "otics": 18112,
  "ĠOmega": 28154,
  "Ġhusbands": 26563,
  "soon": 28095,
  "Ġcorrect": 3793,
  "Ġvolcanic": 26020,
  "rise": 17233,
  "Ġdomain": 9100,
  "Ġinterfere": 18144,
  "Ġdefin": 2733,
  "pol": 16079,
  "Ġfolding": 29800,
  "ael": 2693,
  "Ġresign": 8516,
  "ĠU": 440,
  "Ġdisturbing": 12674,
  "platform": 25849,
  "ona": 4018,
  "ĠCommunications": 13158,
  "ĠStrong": 16753,
  "inth": 22322,
  "ĠBal": 9798,
  "Ġmoving": 3544,
  "Ġdisagrees": 30625,
  "Ġoccupy": 19766,
  "ĠArkansas": 13076,
  "ĠBenghazi": 17211,
  "ĠSandy": 15053,
  "Ġcharacteristics": 10640,
  "Ġregained": 31932,
  "Ġstead": 7345,
  "Ġconservation": 12410,
  "Japan": 15607,
  "economic": 15503,
  "baum": 21504,
  "ortheast": 13338,
  "Ġhonour": 14888,
  "get": 1098,
  "uates": 11840,
  "pherd": 22174,
  "Ġfully": 3799,
  "Ġmindful": 29913,
  "ĠTheresa": 19240,
  "Ġspicy": 28541,
  "agan": 6369,
  "ĠOper": 7391,
  "Ġsediment": 29483,
  "Ġgraz": 29798,
  "Ġcertificate": 13719,
  "Ġdive": 14774,
  "ĠInst": 2192,
  "ĠArabian": 27186,
  "Ġnation": 2667,
  "Dead": 24552,
  "op": 347,
  "holes": 25090,
  "ically": 1086,
  "Ġcongregation": 25379,
  "Ġreconnaissance": 31673,
  "Ġresearc": 3434,
  "Ġhit": 1896,
  "Å«": 23012,
  "Ġscream": 10504,
  "Ġbasement": 15973,
  "Ġliteral": 18553,
  "bike": 27923,
  "Ġspokeswoman": 9118,
  "Ġballpark": 31268,
  "ĠEl": 2846,
  "ĠCons": 3427,
  "Ġdesigner": 10336,
  "ĠAudio": 19898,
  "Ġmosquitoes": 29979,
  "Ġincor": 6097,
  "Ġrecently": 2383,
  "minster": 16009,
  "Ġambiguous": 25092,
  "Ġeconomists": 13008,
  "iction": 2917,
  "Ġunusual": 7618,
  "Ġexact": 2617,
  "Ġprocessing": 8006,
  "Ġbanned": 7875,
  "Fred": 27649,
  "Ġresent": 17817,
  "left": 9789,
  "Ġsuppose": 12803,
  "ĠPass": 9031,
  "Ġoverlap": 21240,
  "Ġtrader": 30785,
  "Ġusually": 3368,
  "Ġgum": 26079,
  "ĠUp": 3926,
  "Ġsmooth": 8059,
  "Ġinfrared": 26198,
  "Ġstomach": 12408,
  "Ġambulance": 19293,
  "aries": 3065,
  "Ġnest": 15785,
  "ĠTex": 3096,
  "Ġsprink": 27423,
  "UK": 15216,
  "Ġremarkably": 17996,
  "Ġub": 17781,
  "ĠWarcraft": 30188,
  "ĠSoy": 30345,
  "urations": 24573,
  "atar": 9213,
  "Ġmainland": 18913,
  "water": 5794,
  "ĠÙ": 16053,
  "Les": 31440,
  "IT": 3057,
  "ĠMt": 19069,
  "Ġbudgets": 16098,
  "iva": 12688,
  "Ġflex": 7052,
  "Ġescaping": 24518,
  "lar": 19131,
  "ĠWorse": 30912,
  "ĠRoom": 13176,
  "ĠJulia": 19976,
  "Ġlions": 27789,
  "ĠShel": 14466,
  "Ð·": 18881,
  "ĠMission": 13148,
  "Ġshouldn": 5877,
  "camp": 17374,
  "ois": 9398,
  "secutors": 21409,
  "ĠChen": 15647,
  "Ġrevenge": 15764,
  "children": 16103,
  "Ġskepticism": 20070,
  "Ġorbiting": 30857,
  "Ġinfilt": 16987,
  "strong": 10602,
  "Joseph": 28889,
  "Ġconcurrent": 23713,
  "ÂŃ": 2878,
  "ĠiP": 8429,
  "rites": 27391,
  "ĠMerrill": 31691,
  "Ġpivotal": 22856,
  "ĠShepard": 29287,
  "Ġargues": 9291,
  "needed": 23570,
  "Ġspawn": 13354,
  "Ġmortg": 9327,
  "Ġmax": 4505,
  "ĠRiyadh": 29635,
  "Ġchanges": 2393,
  "Ġgenet": 13545,
  "ighed": 12861,
  "ĠAad": 28483,
  "Ġconcent": 5539,
  "ĠPinterest": 13323,
  "====": 4335,
  "Ġuna": 19730,
  "Ġstating": 10633,
  "Ġterrorism": 6903,
  "Ġfaction": 17762,
  "Ġnuclear": 3567,
  "Ke": 8825,
  "Ġbirthday": 10229,
  "ktop": 23139,
  "Lead": 19654,
  "ĠCoff": 16809,
  "$$": 25464,
  "Ġauthoritative": 30086,
  "Ġtricky": 15506,
  "Ġdisgr": 16610,
  "ĠKad": 27827,
  "Ġoct": 19259,
  "special": 22203,
  "Ġmacro": 15751,
  "ĠLives": 16362,
  "Ġknock": 10302,
  "INT": 19375,
  "ult": 553,
  "Ġ3": 594,
  "election": 10555,
  "Despite": 6634,
  "Though": 9243,
  "=âĢĿ": 14849,
  "iss": 722,
  "Ġstalk": 31112,
  "ĠHastings": 31429,
  "Ġstacks": 26192,
  "Ġmarket": 1601,
  "Ġscenarios": 12435,
  "ĠUN": 4614,
  "Ġadvoc": 4200,
  "Ġhometown": 16599,
  "Ġgreenhouse": 12680,
  "ĠSharon": 25409,
  "true": 16889,
  "Iraq": 25401,
  "ĠKing": 3089,
  "ĠRou": 10720,
  "Ġworship": 12835,
  "Ġslowing": 18336,
  "ĠLau": 28487,
  "Ġbattered": 29068,
  "ande": 27897,
  "YouTube": 29824,
  "Ġplain": 8902,
  "arium": 20397,
  "Ġinequ": 8932,
  "Ġalumin": 15459,
  "Ġprobation": 17944,
  "Ġbigotry": 23025,
  "seat": 19359,
  "Berry": 18972,
  "antle": 15617,
  "ĠPoe": 29423,
  "tingly": 28194,
  "Ø§ÙĦ": 19941,
  "Ġregist": 5028,
  "ĠKings": 10786,
  "Ġ2003": 5690,
  "Ġcontribution": 9551,
  "Ġmurder": 4641,
  "ĠÃĸ": 31760,
  "table": 13508,
  "illard": 27851,
  "Ġrecognition": 8083,
  "pop": 13193,
  "olls": 24758,
  "ocide": 14427,
  "ĠChristina": 29302,
  "Description": 24658,
  "Ġmidfield": 8903,
  "efe": 17841,
  "Ġgrill": 30747,
  "147": 29319,
  "ĠWinston": 19468,
  "ĠCoy": 21867,
  "ĠDowntown": 21678,
  "ĠShar": 14562,
  "izza": 10068,
  "ĠSummit": 16930,
  ":<|": 7928,
  "ĠNa": 11872,
  "manuel": 14606,
  "Ġaudiences": 12202,
  "Ġdestroying": 13174,
  "riad": 19523,
  "Ġassertions": 25192,
  "Ġblows": 20535,
  "ĠTroy": 19448,
  "ĠAmeric": 843,
  "ĠStat": 8626,
  "Ġspurred": 27032,
  "Ġbankers": 18701,
  "ĠPub": 18250,
  "ository": 14364,
  "Ġpassengers": 8849,
  "ĠLouis": 4813,
  "fy": 25089,
  "mer": 538,
  "Ġlately": 15207,
  "Ġhack": 4587,
  "ĠInitial": 30668,
  "Ġsulf": 23494,
  "ĠValue": 18428,
  "ĠRam": 6372,
  "ĠBarnes": 18257,
  "ĠRabb": 20399,
  "Ġapproval": 6722,
  "bag": 20713,
  "ĠCAP": 21959,
  "Ġbombed": 26474,
  "raham": 12758,
  "Ġhobb": 29227,
  "Ġpostponed": 26564,
  "Ġcharges": 3975,
  "Ġlevy": 31001,
  "Ġpaths": 13496,
  "gate": 10415,
  "Ġdeaf": 20700,
  "neck": 27117,
  "Ġdual": 10511,
  "ĠTribune": 13553,
  "Ġhungry": 14233,
  "Ġquestioning": 11902,
  "Ġadv": 1186,
  "Ġdread": 15404,
  "ĠMaster": 8923,
  "ĠLibyan": 19380,
  "Ġcoping": 31913,
  "ĠManitoba": 24271,
  "Euro": 12405,
  "ĠAlbany": 25450,
  "Ġcontestants": 31160,
  "utt": 12180,
  "Ġfootprint": 17336,
  "Ġcontent": 2624,
  "II": 5818,
  "Ġdictionary": 23341,
  "Ġmonkey": 22493,
  "App": 5744,
  "Ġmail": 7645,
  "ĠGreens": 14813,
  "Tri": 26103,
  "ĠParish": 30683,
  "ĠHeroes": 18625,
  "angling": 24340,
  "Ġfulfill": 14308,
  "Ġearthqu": 11166,
  "Ġprecinct": 25533,
  "Es": 18182,
  ").": 790,
  "never": 12692,
  "MW": 31712,
  "ĠLots": 26351,
  "tlet": 25255,
  "Ġorganizational": 23792,
  "VE": 8978,
  "Post": 7930,
  "Ġfond": 15094,
  "Ġthemed": 28924,
  "ĠHod": 19140,
  "Ġpoverty": 6922,
  "Ġregistry": 22751,
  "ĠFederal": 5405,
  "Ġstarters": 15903,
  "ĠMarin": 30181,
  "oston": 5017,
  "ĠKong": 8793,
  "×Ļ": 29349,
  "Ġpinpoint": 25740,
  "ril": 23663,
  "Ġscrew": 11137,
  "ĠByrne": 30445,
  "Since": 5503,
  "rome": 6538,
  "ĠMaxim": 30990,
  "adequ": 15306,
  "ĠUSSR": 26719,
  "icers": 14773,
  "Ġenfor": 11329,
  "Ġoptimistic": 12770,
  "ĠBMW": 17114,
  "Ġfeaturing": 8224,
  "Ġexpectancy": 27236,
  "ĠColl": 7593,
  "Ġ13": 2025,
  "rees": 4967,
  "Ġattain": 19795,
  "Ð½Ð¸": 24880,
  "Ġf": 234,
  "Ġprimitive": 20877,
  "Ġoverturned": 21649,
  "ĠiPod": 26292,
  "group": 12045,
  "Regardless": 22896,
  "ĠLeafs": 18109,
  "ĠJeremy": 10870,
  "ĠRemove": 26722,
  "anic": 25494,
  "Ġexpensive": 5182,
  "ĠCommons": 11485,
  "Ġb": 231,
  "ĠTwo": 5131,
  "ĠTemple": 12211,
  "Ġthroat": 16060,
  "Ġcheers": 29450,
  "perture": 31629,
  "ĠEVER": 23691,
  "Ġpaintings": 18460,
  "mentia": 23742,
  "ĠHungarian": 22390,
  "ĠRico": 14348,
  "Ġlibertarians": 26418,
  "Ġnicotine": 23412,
  "compet": 22502,
  "ĠNom": 23357,
  "Ġemission": 23140,
  "Ġsto": 3784,
  "Ġregulatory": 9957,
  "Ġremedy": 22371,
  "ating": 762,
  "Ġbecome": 1540,
  "ĠBolt": 24590,
  "Ġgloom": 28444,
  "Ġstages": 8919,
  "ÑĢÐµ": 22603,
  "System": 23351,
  "Ġmerely": 6859,
  "ĠImperial": 15118,
  "Ġknife": 10605,
  "ĠEx": 1921,
  "ĠScientific": 21123,
  "ivable": 20950,
  "WS": 12205,
  "Ġsolemn": 31944,
  "two": 11619,
  "Ġinterpreter": 27057,
  "asty": 8343,
  "Ġgalaxies": 21692,
  "Ġmanually": 16993,
  "Ġinter": 931,
  "Ġsensitive": 8152,
  "ĠGod": 2596,
  "Ġfinanced": 23641,
  "Ġfather": 2866,
  "Ġtrials": 9638,
  "ummy": 16829,
  "ĠPatterson": 23203,
  "Ġsob": 26267,
  "Ġdecades": 3726,
  "ĠSk": 7212,
  "liner": 21644,
  "Ġinsurance": 4618,
  "ĠLater": 10854,
  "strike": 26731,
  "ships": 24709,
  "ĠGallagher": 31129,
  "ĠAlthough": 4955,
  "Ġmonopol": 26139,
  "Ġfrog": 21346,
  "âĢĻ.": 6851,
  "Ġbass": 12583,
  "Ġnegotiate": 13706,
  "Green": 13665,
  "Ġestim": 3587,
  "pc": 19481,
  "ĠReports": 19708,
  "ĠFloyd": 21155,
  "ĠVenezuelan": 26300,
  "Ġmajority": 3178,
  "Ġadvises": 29149,
  "ĠDanish": 17444,
  "ĠAdelaide": 20752,
  "Ġprototypes": 25886,
  "Ġproductivity": 11667,
  "ĠEither": 15515,
  "ĠMilan": 16577,
  "Ġgau": 15251,
  "ĠMorning": 12960,
  "foo": 29608,
  "ched": 1612,
  "ĠAlexis": 26023,
  "ĠComet": 31886,
  "aleb": 26580,
  "Ġelder": 10130,
  "Ġpersuade": 17591,
  "cyclopedia": 29389,
  "Ġgran": 19371,
  "Patrick": 27042,
  "000": 903,
  "Ġsy": 798,
  "Ġkept": 3853,
  "NG": 12787,
  "Ġutilizing": 24203,
  "Ġaffairs": 8397,
  "agram": 7213,
  "iation": 4256,
  "atching": 17219,
  "ĠCarlson": 27273,
  "Ġ71": 13025,
  "Ġapprehend": 28402,
  "Ġsuccessive": 22724,
  "Ġinternationally": 16370,
  "ĠFran": 15031,
  "Ġcens": 10160,
  "Indian": 26040,
  "ĠAddress": 25162,
  "Ġlocking": 23198,
  "Ġrefere": 6434,
  "Ġpray": 15296,
  "described": 28966,
  "Ġ(\"": 10007,
  "ĠMell": 27557,
  "Ġexploding": 28077,
  "0001": 31223,
  "ĠFind": 12251,
  "Ġyear": 515,
  "Ġgrew": 5493,
  "ĠVul": 25614,
  "Ġorb": 16509,
  "Ġsketch": 16570,
  "ĠAz": 9574,
  "agon": 3456,
  "idas": 23576,
  "arding": 14604,
  "ĠIsle": 30233,
  "ĠMaterials": 30510,
  "Three": 11092,
  "Ġlegalized": 24492,
  "Ġthank": 5481,
  "Labour": 25291,
  "Ġliv": 15582,
  "OLL": 20617,
  "Ġindications": 23722,
  "PRE": 29418,
  "Ġthwart": 20600,
  "ĠRider": 28513,
  "Ġopaque": 30526,
  "ĠAuthority": 10312,
  "Ġelig": 8257,
  "Ġprogramme": 9062,
  "Ġtranspl": 30502,
  "Official": 30531,
  "uy": 6140,
  "Ġfut": 11473,
  "dep": 10901,
  "Ġcooperative": 20188,
  "dimensional": 18206,
  "lings": 20247,
  "Ġclarify": 16482,
  "à¦": 30690,
  "urities": 11983,
  "ians": 1364,
  "Ġsatire": 28719,
  "Ġmar": 1492,
  "Mel": 19756,
  "expl": 21392,
  "Ġinitially": 6078,
  "ĠFame": 14536,
  "restrial": 19973,
  "Ġexperiencing": 12344,
  "arden": 6264,
  "Ġ115": 20195,
  "40": 2800,
  "ĠCash": 17349,
  "Ġletting": 9055,
  "Ġastonishing": 18606,
  "ĠPercent": 27495,
  "ĠRO": 15109,
  "ĠTreasury": 10706,
  "Ġcollectively": 17641,
  "::": 7787,
  "ĠMad": 4494,
  "Ġbar": 2281,
  "see": 4019,
  "Ġmall": 15050,
  "Ġrecall": 9142,
  "22": 3084,
  "ĠAf": 1979,
  "ĠMahm": 22720,
  "Either": 28156,
  "opes": 13121,
  "un": 361,
  "Ġassessments": 20621,
  "Ġneighbors": 10168,
  "azor": 18554,
  "Ġdistinguish": 15334,
  "Ġconstit": 7171,
  "ĠMartian": 25549,
  "Ġrewrite": 24195,
  "ĠWebsite": 17930,
  "ĠUtah": 9080,
  "ĠApps": 25967,
  "Ġattached": 8398,
  "Ġsenses": 19675,
  "Ġbooming": 24762,
  "ĠDas": 24103,
  "ulative": 13631,
  "Bs": 28000,
  "Ġhomosexuals": 29542,
  "ulating": 7912,
  "Ġdrinking": 7356,
  "Ġsecurity": 1968,
  "Ġobject": 2392,
  "Fixed": 19063,
  "Ġexamining": 16298,
  "iop": 13970,
  "åĪ": 29940,
  "ĠMeh": 27630,
  "ĠUSS": 22116,
  "Romney": 30788,
  "Ġshortages": 22448,
  "Ġinvestig": 1711,
  "ĠDome": 27822,
  "should": 20171,
  "Ġmanager": 3800,
  "Ġfitted": 18835,
  "rict": 1899,
  "Ġlistened": 15078,
  "Ġsuspend": 21197,
  "star": 7378,
  "uries": 4258,
  "Ġhast": 29802,
  "âĸł": 24574,
  "Ġbroad": 2650,
  "pocket": 31954,
  "ÑĤ": 5507,
  "Ġefficiently": 16885,
  "ĠRace": 14310,
  "unct": 13540,
  "ure": 458,
  "Custom": 21213,
  "ĠIndy": 18844,
  "AYS": 31569,
  "especially": 15302,
  "inished": 30151,
  "redit": 6966,
  "volent": 27624,
  "Ġdominated": 10642,
  "Added": 19344,
  "Gal": 28011,
  "ansen": 29225,
  "poll": 29042,
  "ĠBasic": 19949,
  "DR": 10921,
  "Ġsou": 22997,
  "Ġfetus": 30379,
  "Ġcard": 3091,
  "icia": 29526,
  "Ġaggressively": 16115,
  "ĠChance": 12527,
  "ĠHur": 9257,
  "ĠFrench": 3618,
  "Ġweakened": 21681,
  "ĠIGN": 24900,
  "ĠNBN": 30135,
  "ĠLodge": 29617,
  "Ġdislike": 21590,
  "Ġbread": 9140,
  "abad": 14058,
  "alsh": 17530,
  "Ġguy": 3193,
  "ĠDonna": 26429,
  "Ġjudgments": 24151,
  "Ġgeneration": 4685,
  "Ġhomicides": 28754,
  "ovic": 14271,
  "female": 28959,
  "Ġ59": 10838,
  "ĠCSS": 15201,
  "Ġgrilled": 30734,
  "Sil": 17144,
  "HC": 17798,
  "omic": 10919,
  "Ġepidem": 25444,
  "Ġhumorous": 31348,
  "Ġissu": 31497,
  "Ġbehav": 2914,
  "University": 21236,
  "Ġsurn": 30287,
  "Ġform": 1324,
  "Ġimagin": 21855,
  "iens": 10532,
  "Ġoppress": 31359,
  "Ġsystems": 3111,
  "Ġsimilarly": 11173,
  "ĠApparently": 17380,
  "Ġdisorder": 9373,
  "olean": 26377,
  "ĠKle": 13327,
  "Ġtheft": 11148,
  "Ġloser": 26561,
  "ĠRanch": 24400,
  "Ġsensible": 18254,
  "ĠBoko": 30064,
  "utterstock": 23116,
  "Ġrose": 8062,
  "netic": 10036,
  "Science": 24787,
  "Ġfavors": 20142,
  "Ġsync": 19214,
  "Ġgay": 4620,
  "Ġcoin": 11518,
  "Ġabducted": 30016,
  "IGN": 23228,
  "Ġcalories": 16407,
  "Ġconverting": 21673,
  "Ġwitnesses": 10826,
  "ĠRe": 969,
  "storm": 12150,
  "ĠHis": 2341,
  "perial": 12886,
  "Ġcaste": 26394,
  "ardless": 13278,
  "ICK": 15122,
  "Ġrevolt": 21695,
  "ĠLa": 3942,
  "oes": 3491,
  "Ġshoe": 16943,
  "ĠMotors": 15853,
  "Ġtrave": 8984,
  "ortun": 1724,
  "Ġbend": 20666,
  "Ġtimber": 28570,
  "ymph": 24253,
  "ox": 1156,
  "Ġvisa": 13507,
  "build": 15189,
  "Ġlegislators": 14912,
  "Ġpersonalities": 18313,
  "ĠnaÃ¯": 31989,
  "Ġcontrast": 5537,
  "Ġideally": 27724,
  "ĠLoop": 29367,
  "Prof": 14572,
  "Kar": 30739,
  "ĠMiss": 4680,
  "ATION": 11412,
  "ĠEthan": 28240,
  "walks": 24835,
  "Ġintellig": 10370,
  "Ġmood": 9839,
  "ick": 616,
  "Ġfoo": 29488,
  "Ġpredictions": 13827,
  "Ġappalling": 26942,
  "BI": 3415,
  "Ġchemistry": 14533,
  "Ġenz": 28865,
  "Ġcomrades": 25539,
  "selling": 13951,
  "7": 23,
  "Ġmarkers": 21134,
  "ainer": 16278,
  "ĠBeyond": 14728,
  "Em": 11180,
  "ĠEz": 22990,
  "|>âĢľ": 16575,
  "Ġportrait": 16915,
  "hetics": 23107,
  "Ġvaguely": 27403,
  "];": 16491,
  "onian": 28571,
  "ital": 1195,
  "Ġoutlook": 16022,
  "Ġpersist": 15140,
  "ĠTyler": 13175,
  "GEL": 25679,
  "Ġnutritional": 25559,
  "Ġconsolid": 14034,
  "by": 1505,
  "Ġmound": 28516,
  "ĠBM": 10155,
  "ĠPale": 22851,
  "Ġ01": 13015,
  "Ġanten": 18473,
  "ĠCloud": 11321,
  "ĠBronze": 30949,
  "iddled": 30297,
  "Ġprinciple": 7781,
  "Ġborne": 28642,
  "ASH": 11674,
  "Ġassemb": 10957,
  "Ġsacred": 14410,
  "Ġbanking": 9205,
  "Ġhomes": 4795,
  "Ġbu": 754,
  "ĠChron": 11288,
  "ĠArsenal": 10564,
  "Ð°ÑĤ": 27941,
  "Ġdrain": 15834,
  "ĠRove": 28788,
  "Ġconclus": 5339,
  "Twenty": 28611,
  "Ġwait": 3983,
  "Ġhonoring": 30231,
  "ħ": 184,
  "Ġshooter": 12148,
  "hene": 23681,
  "ĠTow": 24950,
  "current": 16604,
  "Ġshrug": 30654,
  "Ġhearing": 4447,
  "Ġway": 763,
  "Ma": 21075,
  "ĠADHD": 27794,
  "ĠTibetan": 26855,
  "Ġprofitability": 31315,
  "rote": 2030,
  "orter": 3846,
  "Ġevaluated": 18469,
  "Ġsty": 8965,
  "onomous": 30983,
  "Players": 26482,
  "Ġdancing": 14633,
  "science": 15433,
  "bourg": 22072,
  "Ġissues": 2137,
  "ĠLeon": 9737,
  "att": 2226,
  "news": 10089,
  "Ġsecretly": 16077,
  "RED": 17882,
  "---": 12510,
  "Ġindicative": 26174,
  "Ġfar": 1155,
  "Ġestablished": 4763,
  "ners": 2435,
  "EY": 26793,
  "Ġfunn": 31486,
  "ÈĽ": 25574,
  "ĠNak": 19924,
  "Ġprohibition": 17900,
  "Ġconvert": 10524,
  "ĠDrag": 15467,
  "Ġoverall": 3687,
  "Tal": 28336,
  "Message": 24131,
  "Ġmans": 22563,
  "Value": 20162,
  "Ġshe": 637,
  "ĠNCAA": 12052,
  "keley": 11236,
  "ĠTide": 29903,
  "Ġstre": 1471,
  "Ġchampionships": 19574,
  "clamation": 24737,
  "ĠWords": 27860,
  "Ġcour": 1019,
  "October": 19150,
  "aws": 13145,
  "Ġarise": 15701,
  "busters": 24540,
  "Ġwitnessed": 11860,
  "lic": 596,
  "Ġcontempt": 16677,
  "arette": 14445,
  "Ġforcefully": 31936,
  "Ġbarr": 25410,
  "Ġmagnitude": 13472,
  "Ġcomprising": 27888,
  "Ġspeaking": 4989,
  "Ġhang": 7965,
  "Ġtea": 8712,
  "SN": 17270,
  "ĠâĢĭ": 19116,
  "cock": 18370,
  "what": 4815,
  "Ġpremature": 17820,
  "Ġpresentations": 25054,
  "Ġ116": 25650,
  "skin": 22847,
  "Ġprominent": 7599,
  "ĠPascal": 30543,
  "Ġreligions": 16511,
  "Ġofficer": 3467,
  "Ġtendencies": 23031,
  "Ġvacuum": 16170,
  "Ġseems": 2147,
  "Ġcountered": 28396,
  "Ġ15": 1625,
  "ĠACA": 23439,
  "Ġupset": 8023,
  "early": 10453,
  "ĠSylv": 27064,
  "ĠParis": 5403,
  "Ġranking": 11018,
  "itated": 13741,
  "ĠDie": 6491,
  "Ġsubmitting": 25782,
  "Ġinternal": 5202,
  "alled": 2995,
  "ĠBol": 10313,
  "arching": 31150,
  "Ġjihad": 10412,
  "ĠEaster": 18415,
  "ĠProspect": 27457,
  "Ġactivist": 8545,
  "ĠHawkins": 27142,
  "ĠGraham": 9443,
  "ĠAlready": 25802,
  "Mus": 9687,
  "uras": 15559,
  "Econom": 23579,
  "ĠL": 387,
  "Ġfaithful": 17424,
  "Ġrecreation": 25313,
  "gering": 23294,
  "159": 31398,
  "Mar": 7743,
  "ĠWing": 16431,
  "Hay": 28080,
  "Ġinsecurity": 26966,
  "Wik": 31922,
  "atham": 31900,
  "ĠAtlant": 5093,
  "Ġsitcom": 26031,
  "Ġtransformed": 13266,
  "Ġextends": 14615,
  "Semitic": 22773,
  "Ġ76": 11973,
  "Ġgift": 7862,
  "ĠInstitute": 4418,
  "³": 112,
  "ORTS": 30696,
  "itzer": 18154,
  "Ġincurred": 30024,
  "M": 45,
  "Ġsatur": 19005,
  "ann": 1554,
  "ĠHawaiian": 26917,
  "Ġphenomena": 18892,
  "sh": 1640,
  "ĠCris": 15965,
  "Ġlect": 10134,
  "ighter": 4934,
  "isen": 12532,
  "Ġdice": 19095,
  "gence": 11697,
  "################": 24507,
  "mination": 14317,
  "Ġtu": 11696,
  "developed": 28406,
  "ĠBas": 7231,
  "osterone": 20453,
  "ĠGuant": 19244,
  "Ġrespectively": 8179,
  "Game": 12971,
  "ĠGrace": 18184,
  "ĠDurant": 23130,
  "anoia": 26874,
  "Ġcoercion": 29402,
  "Ã£o": 14123,
  "umbles": 23791,
  "Ġinsects": 18199,
  "Ġmurderous": 30019,
  "»¿": 27356,
  "Fit": 30924,
  "ĠEvangel": 25400,
  "asse": 19494,
  "Join": 19585,
  "ĠBoulder": 24475,
  "Ġenlist": 28755,
  "images": 25520,
  "stro": 21900,
  "ĠBrother": 8330,
  "Ġvideo": 1783,
  "Ġdistress": 16784,
  "llect": 6460,
  "alse": 4052,
  "ĠAmber": 25647,
  "listed": 17226,
  "Chat": 29736,
  "Actually": 24428,
  "ĠConnor": 23846,
  "uda": 16650,
  "Ġviolating": 15186,
  "Ġpesticides": 23851,
  "ler": 1748,
  "Ġmentioned": 4734,
  "ĠComment": 20507,
  "Ġhumour": 27467,
  "awks": 10543,
  "From": 5139,
  "Ġdiesel": 17668,
  "ĠBorder": 15291,
  "ĠTe": 1752,
  "corn": 23625,
  "Ġluc": 14524,
  "air": 956,
  "Ġgiants": 17516,
  "Ġawkward": 12124,
  "Redd": 19649,
  "ĠCustomer": 23820,
  "Ġinformed": 7268,
  "Ġpersistent": 15280,
  "1997": 26341,
  "ĠKirby": 23735,
  "roads": 17873,
  "July": 16304,
  "Ġdefendants": 14890,
  "ĠField": 8019,
  "iberal": 16674,
  "ĠTiger": 18713,
  "revolution": 27896,
  "Ġcumulative": 24656,
  "ĠXen": 25876,
  "izes": 4669,
  "Ġshock": 7802,
  "âĢ¦<|": 31647,
  "ĠSecond": 6112,
  "Ġevolved": 10960,
  "Ġundo": 22680,
  "Ġcorro": 24113,
  "Ġdried": 17879,
  "Ġeither": 2087,
  "pass": 5792,
  "ĠChampionships": 19396,
  "Ġappearing": 11668,
  "odynam": 22708,
  "Ġexhibition": 14502,
  "Ġcircuits": 24236,
  "tri": 27848,
  "yet": 22513,
  "rella": 18842,
  "gging": 17290,
  "Ġsettings": 8438,
  "antics": 28536,
  "aminer": 26119,
  "from": 7505,
  "Ġaddiction": 12245,
  "Ġappoint": 5247,
  "Ġattacking": 8399,
  "ĠUltimate": 17571,
  "and": 345,
  "Ġcommanding": 24488,
  "otte": 10676,
  "Ġmaid": 22026,
  "Ġtrails": 18806,
  "I": 41,
  "ĠDT": 28751,
  "ĠHeritage": 16264,
  "Ġloyalty": 14260,
  "Ġconcert": 10734,
  "zene": 27836,
  "ĠNE": 15117,
  "per": 509,
  "ocate": 12750,
  "ĠPred": 16151,
  "Ġepic": 10790,
  "ĠPersonal": 20268,
  "panz": 29178,
  "Ġredd": 19761,
  "ximately": 24029,
  "Ġfastest": 12308,
  "Ġmission": 4144,
  "umbl": 13966,
  "ĠGregg": 28405,
  "Ġinsect": 13003,
  "ĠKw": 30529,
  "ĠLear": 10439,
  "neys": 19103,
  "ĠWalt": 17046,
  "Ġbird": 10647,
  "Dav": 8046,
  "ĠIdaho": 17595,
  "Ġbusy": 7587,
  "write": 14770,
  "facing": 25354,
  "à¹": 29104,
  "Ġbroken": 5302,
  "Ġtheoretical": 14968,
  "ĠWinnipeg": 18243,
  "Ġ1600": 28655,
  "ĠTap": 19718,
  "ations": 547,
  "organized": 26396,
  "ĠSang": 31273,
  "Ġprol": 12035,
  "Ġkids": 3404,
  "Ġobstruction": 23616,
  "Ġpassing": 5633,
  "Ġconcealed": 17077,
  "ian": 603,
  "Ġelectronics": 14859,
  "Ġanth": 21652,
  "vel": 610,
  "Ġexpressions": 15507,
  "ĠBlues": 13853,
  "Ġtotal": 2493,
  "acket": 8995,
  "Ġerror": 5230,
  "ĠVictory": 22696,
  "Ġcease": 11791,
  "Ġcredible": 15160,
  "ĠSimp": 17216,
  "chens": 24045,
  "Ġ47": 7822,
  "father": 10583,
  "ĠWeap": 17271,
  "Ġstayed": 8558,
  "atur": 2348,
  "Ġlicens": 8440,
  "ĠCyber": 18282,
  "Ġoperates": 12292,
  "Ġsizes": 11995,
  "hurst": 28693,
  "Ġsheriff": 13903,
  "olving": 9986,
  "Ġindirectly": 21404,
  "ĠCyn": 31390,
  "ĠGear": 14152,
  "Kn": 27612,
  "ĠMariners": 26906,
  "acity": 4482,
  "Ġsorts": 9374,
  "Ġthieves": 24241,
  "Ġwhenever": 9151,
  "Ġgall": 7629,
  "Ġclicking": 12912,
  "Ġconcluded": 7237,
  "Ġuninsured": 26697,
  "ified": 1506,
  "Ġgroups": 2294,
  "ĠHorse": 19993,
  "redits": 26080,
  "Ġprost": 10653,
  "Anti": 26414,
  "earchers": 13295,
  "wear": 14278,
  "Ġstance": 9956,
  "Ġposts": 6664,
  "Ġtype": 2622,
  "Ġtourist": 15208,
  "ĠEarly": 12675,
  "aley": 13711,
  "ĠLucas": 13254,
  "ĠHost": 18564,
  "Ġsticking": 15624,
  "Ġdict": 7543,
  "Ġshelters": 20494,
  "Ġpreaching": 30264,
  "Ġcontroversies": 29482,
  "ĠID": 6057,
  "Ġmeasurement": 16774,
  "HE": 20837,
  "Asked": 14173,
  "Ġclerk": 22110,
  "Ġroy": 9876,
  "iph": 13312,
  "coming": 4324,
  "ĠResults": 21343,
  "Ġgasoline": 17143,
  "Ã¼r": 15436,
  "Ġjails": 31002,
  "Ġgrants": 11844,
  "ĠNFL": 4293,
  "Ġthigh": 24358,
  "ppe": 24683,
  "ĠPil": 15440,
  "eness": 10078,
  "Ġsurely": 9357,
  "ume": 2874,
  "Ġneut": 6790,
  "Ġconsultants": 24249,
  "ĠOliver": 13491,
  "Ġsolution": 4211,
  "Ġgifted": 21013,
  "Ġschool": 1341,
  "boarding": 21480,
  "Ġtrue": 2251,
  "Ġ0": 1068,
  "Nusra": 30562,
  "Ġwire": 6580,
  "Ġcreates": 7740,
  "ĠSydney": 9591,
  "Di": 20786,
  "Ġbanker": 27150,
  "Ware": 31464,
  "ĠBobby": 14914,
  "ĠBuild": 14213,
  "Ġblind": 7648,
  "Ġminds": 8218,
  "Ġtaxpayers": 10869,
  "Ġex": 362,
  "Ġlenders": 22449,
  "ĠKas": 12220,
  "Ġunmanned": 26679,
  "ĠHopefully": 17319,
  "Ġexamined": 11269,
  "Ġprofessor": 5104,
  "unique": 15586,
  "ribed": 27707,
  "35": 3617,
  "Ġhalf": 1890,
  "ae": 4161,
  "eta": 16259,
  "Ġplead": 29156,
  "Ġlod": 19173,
  "ĠDB": 22713,
  "Ġplayer": 2021,
  "ISE": 28753,
  "raig": 9607,
  "prising": 12698,
  "Ġxen": 22988,
  "acre": 10378,
  "ĠGreg": 7810,
  "ĠSexual": 22626,
  "Ġupstream": 28023,
  "Ġbilateral": 20524,
  "Ġphotography": 14268,
  "Ġloves": 10043,
  "ĠStatement": 29179,
  "irrel": 24148,
  "oto": 1942,
  "risk": 17053,
  "Ġsin": 8365,
  "Ġs": 221,
  "Ġreception": 14449,
  "ĠNewman": 22128,
  "Ġindicate": 7864,
  "Ġsize": 3000,
  "Ġsteals": 25228,
  "Ġfragile": 17988,
  "Ġcontested": 18860,
  "Ġstealing": 14807,
  "Ġregret": 11698,
  "ĠÐ½Ð°": 24432,
  "isers": 13105,
  "Cla": 29548,
  "Ġsnakes": 25746,
  "Ġinterf": 9572,
  "74": 8609,
  "Ġshirts": 19169,
  "cipl": 19692,
  "ĠStevens": 16557,
  "aby": 4067,
  "ĠProgress": 11936,
  "ĠDil": 28586,
  "Ġsmart": 3700,
  "Ġgonna": 7972,
  "amoto": 23518,
  "ĠTol": 19009,
  "olution": 2040,
  "ĠShould": 11008,
  "imeter": 15869,
  "station": 17627,
  "Ġoffs": 16837,
  "Ġadhere": 24264,
  "Ġprevalence": 19450,
  "Ġdrum": 11453,
  ".'": 4053,
  "fill": 21523,
  "93": 9161,
  "ï½": 25607,
  "Ġresolve": 10400,
  "ctic": 9001,
  "uta": 28866,
  "ĠCI": 18632,
  "Ġdeli": 2820,
  "Ġcorps": 16227,
  "Ġrepercussions": 27353,
  "114": 23956,
  "Ġfined": 19160,
  "urches": 11264,
  "ĠOf": 3630,
  "ĠNormally": 31151,
  "olutely": 14600,
  "Ġroughly": 6261,
  "Ġbeds": 19550,
  "Ġsuppress": 17510,
  "Ġstationed": 22275,
  "ĠPag": 28348,
  "Ġdependent": 10966,
  "Ġanticipated": 12577,
  "Ġsupreme": 16878,
  "Ġpockets": 15243,
  "Ġages": 9500,
  "Ġov": 22951,
  "ĠUnfortunately": 8778,
  "ĠString": 14580,
  "ĠHamb": 22115,
  "cot": 19520,
  "aul": 2161,
  "ĠHubble": 30250,
  "52": 7804,
  "ifted": 20509,
  "Ġaltered": 14323,
  "Ġconsent": 9521,
  "Ġfluids": 30416,
  "Ġemerging": 9635,
  "Ġtighter": 25555,
  "ertainly": 16245,
  "Ġwavelength": 26406,
  "abwe": 19769,
  "ĠPatricia": 28106,
  "Ġsmall": 1338,
  "impl": 31916,
  "Ġsniff": 24756,
  "Ġequilibrium": 27483,
  "ĠImm": 11352,
  "Ġvotes": 5115,
  "ĠKerala": 28559,
  "150": 10369,
  "Ġwealth": 4396,
  "Ġsexism": 21306,
  "'ve": 1814,
  "pical": 17415,
  "ĠAN": 10047,
  "Ġsituation": 2763,
  "ĠTrafford": 30251,
  "versely": 20569,
  "Ġopposition": 4179,
  "Ġaffirm": 16451,
  "Ġformations": 27608,
  "ĠOr": 1606,
  "ĠStudio": 13443,
  "Ġhistor": 3240,
  "Ġtablets": 15060,
  "ı": 194,
  "Ġshipping": 9906,
  "ini": 5293,
  "Ġstockp": 25366,
  "chen": 6424,
  "Ġplacing": 12281,
  "annon": 9626,
  "ĠDC": 6390,
  "agar": 25759,
  "ordinary": 9227,
  "ĠMeasure": 30825,
  "Information": 27846,
  "Ġmanga": 18600,
  "icially": 24110,
  "Ġprolet": 24302,
  "Ġcolumnist": 16816,
  "bast": 18210,
  "erent": 9742,
  "Ġflowing": 16508,
  "Ġextrem": 7474,
  "Beyond": 20023,
  "Ġserial": 12460,
  "ĠGingrich": 18775,
  "ĠSum": 5974,
  "ĠKind": 14132,
  "itution": 2511,
  "gender": 6912,
  "Ġsequ": 4718,
  "iles": 3382,
  "Ġlegal": 2346,
  "Ġbacking": 9814,
  "Ġfounders": 17550,
  "Ġdiscontent": 30641,
  "Ġthinner": 29779,
  "Ġn": 257,
  "Ġu": 293,
  "Ã¤r": 26763,
  "Ġlaunched": 4485,
  "Ġchapters": 18090,
  "ich": 442,
  "Ġhello": 25969,
  "Ġinvoked": 23754,
  "Ġclassrooms": 26448,
  "Ġstation": 4023,
  "inational": 20872,
  "ĠManufact": 22106,
  "let": 1679,
  "Ġaddressed": 8650,
  "Ġcoordinate": 19990,
  "Color": 18414,
  "nee": 28200,
  "of": 590,
  "Ġinclude": 2324,
  "Ġcele": 3391,
  "Ġcastle": 18969,
  "Ġdepending": 7497,
  "$": 4,
  "ĠFREE": 21642,
  "Ġtravels": 16630,
  "Ġreconst": 13166,
  "Ò": 141,
  "ĠCancer": 16996,
  "rase": 24796,
  "Ġintersection": 15342,
  "Ġstaffer": 21984,
  "Ġwhose": 2764,
  "Ġzero": 6420,
  "Ġbachelor": 27136,
  "ĠRus": 8070,
  "ĠFine": 19307,
  "1993": 28704,
  "Ġ((": 23886,
  "Ġbrothers": 8496,
  "Windows": 20467,
  "ĠTIME": 22200,
  "Ġunfolded": 28863,
  "ĠParent": 31089,
  "Ġcharg": 2330,
  "Ġnewsletters": 11659,
  "Ġviewed": 8474,
  "yssey": 26635,
  "Core": 21799,
  "Ġincap": 17875,
  "ĠCardinal": 22628,
  "Ġappreciated": 16844,
  "Ġbees": 17463,
  "Ġund": 3098,
  "Ġincumb": 14669,
  "Want": 19391,
  "Ġaltitude": 19801,
  "ortions": 14208,
  "Ġgive": 1559,
  "ador": 6032,
  "ĠEst": 10305,
  "Ġforce": 2584,
  "athering": 25182,
  "Ġanaly": 3708,
  "Ġpresses": 31740,
  "Ġ185": 27645,
  "ĠSheldon": 30377,
  "Ġcrypto": 20623,
  "proclaimed": 31592,
  "erald": 11242,
  "rowing": 10179,
  "Ġmanslaughter": 29668,
  "Ġtriumph": 13814,
  "lib": 12808,
  "ency": 1297,
  "ĠNav": 13309,
  "Ġthous": 2870,
  "Ġasylum": 10669,
  "imensional": 16608,
  "ĠGallery": 13910,
  "Ġmanual": 11457,
  "ourn": 1737,
  "Ġoutreach": 19346,
  "gency": 4571,
  "ĠFif": 12378,
  "ienced": 24707,
  "ĠRicky": 25159,
  "ĠUrban": 14552,
  "Ġrelent": 15357,
  "Ġweird": 7284,
  "ĠKnown": 31938,
  "nie": 10965,
  "Ġsacrific": 13062,
  "Ġlauncher": 27806,
  "ĠInterview": 22199,
  "Ġninth": 16409,
  "ĠWebb": 20817,
  "continental": 30435,
  "Ġlawyer": 5965,
  "Ġcommitting": 15245,
  "Ġtelesc": 28629,
  "ĠCard": 6560,
  "uru": 13974,
  "Multiple": 31799,
  "ãģ¯": 20434,
  "ĠPor": 17122,
  "Ġplausible": 17525,
  "Ġdioxide": 14219,
  "aber": 30712,
  "Ġgrenades": 28825,
  "Ġculmin": 19595,
  "ĠSky": 6315,
  "ĠLegend": 15349,
  "Ġground": 2268,
  "500": 4076,
  "134": 27835,
  "Ġevade": 29334,
  "Ġcompeting": 9688,
  "Ġprospective": 18143,
  "Ġanalys": 11038,
  "character": 22982,
  "Ġ08": 17115,
  "bug": 31103,
  "illas": 22442,
  "Ġaffects": 11418,
  "ansion": 5176,
  "jin": 27974,
  "emic": 10010,
  "Ġdisplayed": 10219,
  "Ġgambling": 16660,
  "ĠMicro": 4248,
  "hner": 14392,
  "Charl": 22353,
  "Ġmost": 684,
  "Ġfunds": 4855,
  "ĠGive": 15830,
  "ĠCul": 26900,
  "Ġcontainer": 11679,
  "ocamp": 25761,
  "Ġdominant": 9825,
  "ĠTang": 29132,
  "ĠAj": 18485,
  "ĠMonitor": 24300,
  "Anthony": 26823,
  "Throughout": 21166,
  "ĠHolt": 26596,
  "ĠShane": 20670,
  "Ġdishon": 30548,
  "comings": 25298,
  "ĠBrewers": 27884,
  "ses": 9741,
  "Adam": 20559,
  "ĠTW": 20443,
  "Ġmechan": 4010,
  "ickers": 20284,
  "chant": 16812,
  "Ġmash": 28232,
  "ĠJobs": 15457,
  "ĠNH": 27780,
  "ral": 1249,
  "Ġsing": 1598,
  "bas": 17679,
  "Ġ&": 1760,
  "Ġabs": 2357,
  "ĠSty": 28096,
  "Ġconstitu": 10215,
  "ag": 326,
  "Ġas": 309,
  "cosystem": 9999,
  "ĠIs": 1048,
  "Ġ×": 18501,
  "ĠSheffield": 25879,
  "Ġlocker": 14238,
  "sever": 25996,
  "ĠHQ": 25048,
  "Ġseem": 1199,
  "die": 15138,
  "Ġprime": 5428,
  "Ġgrandson": 26990,
  "Ġbrave": 13760,
  "angle": 9871,
  "Ġpotent": 16593,
  "Ġanonymous": 10364,
  "isting": 8602,
  "Ġdeduction": 27297,
  "raine": 23054,
  "class": 5361,
  "Ġreaff": 25132,
  "Ġshades": 25551,
  "llah": 17945,
  "Ġinto": 605,
  "GP": 18734,
  "ĠCamp": 5244,
  "ĠHIV": 10986,
  "ĠGamb": 30596,
  "ual": 699,
  "Ġwoods": 16953,
  "Cut": 30079,
  "Ġleaning": 20919,
  "Ġcycle": 6526,
  "========": 7509,
  "reated": 14546,
  "Ġpartners": 4280,
  "ĠNFC": 19454,
  "There": 1605,
  "search": 15850,
  "Ġacademics": 17090,
  "wid": 12210,
  "Ġglucose": 21821,
  "ĠBeyon": 30729,
  "Ġsigning": 6531,
  "seen": 15881,
  "ĠScandinav": 25942,
  "lient": 14372,
  "Ġunique": 3736,
  "ĠClintons": 24766,
  "ozy": 24716,
  "gus": 10110,
  "KS": 28332,
  "iors": 11756,
  "ively": 2130,
  "Ġcaric": 30102,
  "Ġrecruits": 19328,
  "Ut": 22497,
  "Ġcinnamon": 31037,
  "Ġincremental": 26776,
  "Ġburdens": 24406,
  "Ġcu": 15148,
  "Ġrematch": 30059,
  "Deep": 28709,
  "ĠVen": 10600,
  "Ġcommander": 10046,
  "Ġstaffing": 30353,
  "ald": 1750,
  "Ġcentre": 6033,
  "ÑĮ": 13617,
  "Ġnoting": 8643,
  "ĠXi": 17235,
  "Eric": 20451,
  "ippers": 26835,
  "ĠØ§ÙĦ": 24301,
  "Ġinhabit": 14343,
  "Ġscr": 5346,
  "mia": 22567,
  "ĠKry": 31062,
  "txt": 23556,
  "Ġcompat": 9875,
  "ĠDM": 13995,
  "Ger": 24989,
  "abs": 7797,
  "!,": 26685,
  "ĠArctic": 12551,
  "ĠTamil": 24915,
  "ĠCath": 5327,
  "collar": 28551,
  "Ġbullied": 28034,
  "ĠDisc": 11863,
  "ĠAllah": 16235,
  "rible": 5278,
  "rone": 15169,
  "Ġ05": 17398,
  "\">": 9188,
  "Ġrig": 7167,
  "Ã©mon": 13494,
  "Ġlonger": 2400,
  "ĠBesides": 16863,
  "Ġcurric": 15971,
  "ĠObserv": 15916,
  "ĠER": 21794,
  "Ġstriving": 30507,
  "Ġhistorical": 6224,
  "ĠPirates": 20878,
  "ĠJan": 2171,
  "Ġfest": 12817,
  "Ġneur": 11298,
  "ambig": 26134,
  "Ġarr": 9997,
  "ĠAbraham": 17148,
  "ĠMarc": 11315,
  "esc": 6477,
  "Ġbang": 18837,
  "Ġnight": 1615,
  "Ġrumor": 21779,
  "Ġy": 295,
  "Ġtougher": 16448,
  "ech": 2681,
  "Modern": 26588,
  "Ġlunar": 21140,
  "Ġobligations": 14642,
  "ĠCannon": 26173,
  "LP": 22008,
  "Ġflat": 5666,
  "Ġflash": 8113,
  "ph": 1029,
  "Ġaforementioned": 18276,
  "+,": 29768,
  "Ġmetaphor": 20667,
  "ulture": 6787,
  "Ġman": 524,
  "acts": 9459,
  "notes": 23208,
  "Ġtransparent": 12717,
  "osaurs": 18686,
  "hog": 31898,
  "Ġtechnologies": 7155,
  "Mrs": 23976,
  "Ġfull": 1301,
  "ĠSwansea": 26389,
  "ĠPack": 8103,
  "Ġorder": 1575,
  "locked": 28328,
  "obar": 30947,
  "Ġgoods": 7096,
  "deen": 31869,
  "Ġbraz": 30673,
  "ĠHarvey": 12979,
  "Ġface": 1963,
  "Ġsinister": 24189,
  "Me": 7542,
  "meal": 27700,
  "iac": 9795,
  "heric": 13275,
  "Ġfeds": 31031,
  "Ġnoodles": 31584,
  "Ġoutward": 24426,
  "ratory": 29916,
  "thinking": 24719,
  "ĠAir": 3657,
  "ampion": 5835,
  "Ġpron": 9510,
  "Ġcharter": 15163,
  "Ġhangs": 26312,
  "Ġmig": 28171,
  "ĠEdgar": 24749,
  "Ġplaced": 4711,
  "ĠSpaceX": 20098,
  "ĠFallon": 29369,
  "Ġsubscribe": 10561,
  "Ġdiscipline": 11918,
  "rist": 1434,
  "Ġtroop": 27267,
  "Ġperipheral": 26345,
  "ĠFederation": 11750,
  "Gun": 27839,
  "Ġruins": 20712,
  "Ġunjust": 19676,
  "ollo": 16663,
  "Ġmolecular": 18693,
  "ĠHiro": 24080,
  "Ġterrorists": 8211,
  "Ġbelonging": 15931,
  "Ġloops": 24777,
  "ĠJaguars": 24591,
  "Ġproducing": 8066,
  "Ġthreatened": 7134,
  "Ö": 145,
  "Ġboiling": 25776,
  "Ġmaxim": 19151,
  "Ġmoon": 8954,
  "Ġparty": 1849,
  "hart": 17129,
  "Ġpermanent": 7478,
  "Ġpsychologists": 27004,
  "handed": 12159,
  "ĠBike": 25443,
  "PRO": 29235,
  "ĠLeonard": 17618,
  "Ġadvanced": 6086,
  "Ġconv": 2099,
  "ĠThroughout": 21718,
  "forth": 24646,
  "ĠElementary": 20938,
  "umb": 2253,
  "acha": 30811,
  "sex": 5863,
  "Ġindoor": 21142,
  "anked": 13306,
  "Ġphoto": 4352,
  "words": 11606,
  "ito": 9717,
  "Ġmm": 11817,
  "Ġparity": 30723,
  "ULT": 29253,
  "Ġbloc": 17759,
  "Ġsale": 5442,
  "ĠSnapdragon": 30859,
  "Ġproclaimed": 21956,
  "Brian": 21483,
  "ĠAway": 25877,
  "Ġwarfare": 13204,
  "Ġspouse": 20814,
  "pos": 16401,
  "Ġcoached": 23335,
  "Ġsem": 5739,
  "='": 22227,
  "eson": 31423,
  "ĠMercedes": 16907,
  "fr": 9503,
  "ooks": 30544,
  "ĠElectoral": 22841,
  "ĠBIG": 30740,
  "arg": 821,
  "ĠLomb": 24935,
  "Ġlouder": 26014,
  "hyth": 11835,
  "109": 22370,
  "ĠShelby": 29221,
  "Ġconvictions": 16780,
  "der": 1109,
  "ape": 2131,
  "Ġaunt": 25079,
  "adia": 27009,
  "ĠâĢľ": 409,
  "OME": 16018,
  "Ġpages": 5721,
  "Ġshootings": 13961,
  "Ġcookies": 17534,
  "Ã¼": 6489,
  "oses": 3239,
  "Ġbytes": 17612,
  "Ġintegr": 3927,
  "athetic": 16363,
  "Ġtherm": 23322,
  "OH": 16778,
  "inh": 23982,
  "Ġsli": 10334,
  "bus": 17788,
  "Ġstainless": 31244,
  "Ġ5000": 29498,
  "Ġproposing": 19216,
  "ĠBug": 23169,
  "ĠStore": 9678,
  "Ġcompliment": 18788,
  "Ġwre": 25469,
  "ĠRap": 12163,
  "love": 22471,
  "Ġpaint": 7363,
  "Ġelbow": 22881,
  "Ġfreak": 20599,
  "Ð½Ñĭ": 29271,
  "ĠAlzheimer": 19196,
  "Ġdoing": 1609,
  "bull": 13557,
  "Ġimbalance": 29203,
  "Ġpolling": 11361,
  "Ġconventional": 8999,
  "ilers": 18114,
  "ĠStephens": 29895,
  "pur": 13490,
  "Ġcryptocurrency": 16580,
  "ĠZur": 30784,
  "ĠNeal": 24757,
  "uke": 4999,
  "Ġcrop": 7997,
  "Ġver": 3439,
  "ĠUAE": 23242,
  "ste": 4141,
  "Ġlucrative": 17652,
  "Ġcounterpart": 9793,
  "Ġfeas": 16226,
  "Ġeveryday": 10029,
  "Ġdistinguished": 19096,
  "ĠFort": 7014,
  "uel": 2562,
  "rehensible": 30066,
  "Ġover": 548,
  "Ġ108": 22757,
  "ents": 713,
  "enly": 17431,
  "Ġinstallment": 21876,
  "Ġpositives": 31721,
  "assador": 8949,
  "Ġgarage": 14430,
  "Ġpatriotic": 26757,
  "aru": 15320,
  "ipe": 4272,
  "ĠSheikh": 23395,
  "KA": 24380,
  "Ġescalated": 25983,
  "Ġoptimal": 17649,
  "Ġtrades": 16232,
  "zos": 30172,
  "ĠFilms": 25327,
  "Ġpoorly": 11927,
  "April": 16637,
  "ized": 1126,
  "bul": 14229,
  "ĠVeter": 14177,
  "Ġchancellor": 21916,
  "Ġwheel": 7856,
  "Ġrigged": 24571,
  "Ġplayoff": 6102,
  "out": 403,
  "FM": 24546,
  "imen": 19447,
  "Ġanything": 1911,
  "Ã³n": 10664,
  "Ġprecursor": 30386,
  "uous": 5803,
  "Ġhar": 3719,
  "Ġwrongly": 26436,
  "process": 18187,
  "produced": 25791,
  "Ġcy": 2810,
  "desc": 16337,
  "ĠClock": 26743,
  "ĠSUV": 19823,
  "ĠCarroll": 17467,
  "Ġcongressional": 9117,
  "Ġhooks": 27458,
  "Ġencry": 9268,
  "level": 4388,
  "Ġcliff": 18205,
  "Ġaccount": 1837,
  "ĠPorsche": 22763,
  "Ġtremend": 9532,
  "efully": 6537,
  "ĠFat": 14099,
  "drop": 12625,
  "oul": 3417,
  "ibe": 24626,
  "Ġexpire": 23306,
  "rets": 8572,
  "achus": 8109,
  "Ġsufficiently": 17479,
  "aniel": 5779,
  "ĠYuk": 27730,
  "Ġoutfielder": 31642,
  "history": 31069,
  "ĠJong": 15425,
  "EO": 3924,
  "built": 19142,
  "ĠAIDS": 18740,
  "tv": 20031,
  "Wat": 31823,
  "Ġrequ": 1114,
  "Mean": 7658,
  "ĠProceed": 27870,
  "au": 511,
  "Ġresilient": 25749,
  "scar": 10744,
  "Security": 23161,
  "Ġwisely": 29968,
  "Ġqueer": 20438,
  "Ġselect": 3388,
  "itate": 12233,
  "Ġformula": 11118,
  "very": 499,
  "Ġurged": 9131,
  "Ġhandles": 17146,
  "elaide": 19199,
  "ĠNova": 18538,
  "Ġcarve": 31207,
  "Breaking": 23810,
  "Ġendangered": 18022,
  "ĠMalaysia": 14583,
  ")<|": 10371,
  "Rom": 21545,
  "ĠCathedral": 27725,
  "Ġdrama": 8772,
  "ĠMemory": 21031,
  "aku": 13744,
  "iciency": 6724,
  "paralle": 29215,
  "Ġearns": 25878,
  "ĠRule": 17457,
  "Ġarticle": 2499,
  "ĠJa": 14363,
  "Ġconcess": 14738,
  "Ġsoup": 17738,
  "Ġt": 213,
  "because": 12461,
  "ĠRooney": 25564,
  "clus": 2751,
  "robe": 27372,
  "perties": 25853,
  "ĠHarvard": 9292,
  "ĠCreation": 27640,
  "Ġstatutes": 28782,
  "Ġactivate": 18755,
  "Ġoverlooking": 30270,
  "Ġcluster": 13268,
  "ieves": 18907,
  "oxic": 22050,
  "Ev": 14649,
  "Ġemissions": 7022,
  "250": 10320,
  "ra": 473,
  "Ġsalaries": 14765,
  "ĠNo": 1731,
  "Ġvegetarian": 22375,
  "Ġshelter": 11332,
  "ĠCivil": 7317,
  "ggles": 31860,
  "Ġyards": 5184,
  "eman": 7981,
  "ĠMcCarthy": 14638,
  "Ġenh": 6153,
  "Ġexamples": 6011,
  "ĠBrigade": 23470,
  "Ġloading": 15584,
  "ĠScott": 4021,
  "Ġdefect": 19897,
  "Ġinterface": 7811,
  "pi": 19855,
  "ĠRelations": 14222,
  "EC": 3733,
  "ĠHungary": 16620,
  "item": 20793,
  "Ġarchaeologists": 31871,
  "Ġempowerment": 31921,
  "Ġshocks": 28188,
  "patch": 20159,
  "rene": 21471,
  "Ġempire": 12790,
  "Ġgets": 2933,
  "idal": 11169,
  "war": 5366,
  "ĠVo": 19688,
  "Ġaccelerate": 19420,
  "rich": 6134,
  "Ġ});": 20309,
  "Ġtyped": 27131,
  "ĠBanks": 17088,
  "Ġanarchist": 21383,
  "Ġledger": 31147,
  "Ġ2": 350,
  "Miss": 18361,
  "Ġjurisdiction": 15077,
  "bably": 11712,
  "Ġ/": 2016,
  "immer": 10705,
  "ĠFord": 6946,
  "otle": 21754,
  "ĠOrd": 19044,
  "reek": 10700,
  "Ġdisplay": 3718,
  "year": 1561,
  "ashtra": 29476,
  "Ġtargets": 6287,
  "Ġpertaining": 28880,
  "Ġconversion": 12275,
  "Ġtemplate": 13439,
  "ĠSell": 27699,
  "Ġstrange": 6541,
  "ĠIndones": 10601,
  "Ġbid": 7005,
  "ĠDesert": 21529,
  "Ġimply": 19459,
  "cm": 15158,
  "Ġstatic": 11065,
  "Ġserve": 4382,
  "Ġdoes": 828,
  "iples": 31614,
  "Ġhatch": 26232,
  "itbart": 13277,
  "Ġintro": 18856,
  "Ġimplemented": 8338,
  "Ġbackup": 11397,
  "untary": 27220,
  "eprint": 18613,
  "Ġplight": 23201,
  "Ġsurveillance": 6689,
  "CLA": 15499,
  "may": 10916,
  "cup": 28141,
  "Ġhelmet": 15387,
  "nia": 16913,
  "Ġpumped": 24286,
  "Ġcontrac": 16831,
  "ĠByz": 31448,
  "Hit": 25778,
  "Ġdemand": 3010,
  "Ġreacted": 19114,
  "ĠOut": 4977,
  "Ġoriginally": 5459,
  "osis": 6927,
  "ĠButler": 14996,
  "ĠON": 8378,
  "Ġcourtroom": 20311,
  "when": 12465,
  "Ġtat": 13099,
  "ĠApost": 27659,
  "Ġcod": 14320,
  "JP": 10892,
  "Ġvegan": 12821,
  "ead": 1276,
  "Ġsubmitted": 9410,
  "Ġreliably": 24237,
  "Ġgallon": 25290,
  "Ġsubsid": 6700,
  "Ġmostly": 4062,
  "cr": 7477,
  "gotten": 28317,
  "lation": 15744,
  "ĠH": 331,
  "Ġtransported": 16960,
  "imps": 25760,
  "Ð²": 12560,
  "ĠInsider": 18850,
  "Ġanxious": 17350,
  "akh": 9554,
  "rine": 8615,
  "Ġsequencing": 28625,
  "ĠTalking": 30144,
  "Ġfault": 7861,
  "Ġintent": 6677,
  "ĠAmerican": 1331,
  "vern": 753,
  "Ġtele": 5473,
  "Ġpatriotism": 29016,
  "ĠLoss": 30636,
  "Ġcompass": 31180,
  "ĠBeir": 29602,
  "Wild": 26683,
  "Ġalong": 1678,
  "account": 23969,
  "Ġshines": 31581,
  "ĠIssues": 28876,
  "VER": 6938,
  "td": 28122,
  "cann": 29201,
[...]
